{
    "version": "1.0",
    "truncation": null,
    "padding": null,
    "added_tokens": [
        {
            "id": 0,
            "special": true,
            "content": "</s>",
            "single_word": false,
            "lstrip": false,
            "rstrip": false,
            "normalized": false
        },
        {
            "id": 1,
            "special": true,
            "content": "<unk>",
            "single_word": false,
            "lstrip": false,
            "rstrip": false,
            "normalized": false
        },
        {
            "id": 59513,
            "special": true,
            "content": "<pad>",
            "single_word": false,
            "lstrip": false,
            "rstrip": false,
            "normalized": false
        },
		{
			"id": 59514,
			"special": true,
			"content": "__nnh__",
			"single_word": false,
			"lstrip": false,
			"rstrip": false,
			"normalized": false
		}
    ],
    "normalizer": {
        "type": "Precompiled",
        "precompiled_charsmap": null
    },
    "pre_tokenizer": {
        "type": "Sequence",
        "pretokenizers": [
            {
                "type": "WhitespaceSplit"
            },
            {
                "type": "Metaspace",
                "replacement": "▁",
                "add_prefix_space": true
            }
        ]
    },
    "post_processor": {
        "type": "TemplateProcessing",
        "single": [
            {
                "Sequence": {
                    "id": "A",
                    "type_id": 0
                }
            },
            {
                "SpecialToken": {
                    "id": "</s>",
                    "type_id": 0
                }
            }
        ],
        "pair": [
            {
                "Sequence": {
                    "id": "A",
                    "type_id": 0
                }
            },
            {
                "SpecialToken": {
                    "id": "</s>",
                    "type_id": 0
                }
            },
            {
                "Sequence": {
                    "id": "B",
                    "type_id": 0
                }
            },
            {
                "SpecialToken": {
                    "id": "</s>",
                    "type_id": 0
                }
            }
        ],
        "special_tokens": {
            "</s>": {
                "id": "</s>",
                "ids": [
                    0
                ],
                "tokens": [
                    "</s>"
                ]
            }
        }
    },
    "decoder": {
        "type": "Metaspace",
        "replacement": "▁",
        "add_prefix_space": true
    },
    "model": {
        "type": "Unigram",
        "unk_id": 1,
        "vocab": [
					  [
						"</s>",
						0.0
					  ],
					  [
						"<unk>",
						0.0
					  ],
					  [
						",",
						-3.0
					  ],
					  [
						".",
						-3.0
					  ],
					  [
						"▁the",
						-3.0
					  ],
					  [
						"▁de",
						-3.0
					  ],
					  [
						"'",
						-3.0
					  ],
					  [
						"▁of",
						-3.0
					  ],
					  [
						"▁la",
						-3.0
					  ],
					  [
						"s",
						-3.0
					  ],
					  [
						"▁and",
						-3.0
					  ],
					  [
						"▁et",
						-3.0
					  ],
					  [
						"▁to",
						-3.0
					  ],
					  [
						"▁des",
						-3.0
					  ],
					  [
						"▁l",
						-3.0
					  ],
					  [
						"▁a",
						-3.0
					  ],
					  [
						"▁les",
						-3.0
					  ],
					  [
						"▁à",
						-3.0
					  ],
					  [
						"▁in",
						-3.0
					  ],
					  [
						"▁le",
						-3.0
					  ],
					  [
						"▁d",
						-3.0
					  ],
					  [
						"-",
						-3.0
					  ],
					  [
						"▁du",
						-3.0
					  ],
					  [
						"▁en",
						-3.0
					  ],
					  [
						"▁(",
						-3.0
					  ],
					  [
						"▁'",
						-3.0
					  ],
					  [
						"▁for",
						-3.0
					  ],
					  [
						"▁pour",
						-3.0
					  ],
					  [
						")",
						-3.0
					  ],
					  [
						"▁que",
						-3.0
					  ],
					  [
						"▁on",
						-3.0
					  ],
					  [
						"▁dans",
						-3.0
					  ],
					  [
						"▁is",
						-3.0
					  ],
					  [
						"▁that",
						-3.0
					  ],
					  [
						"▁un",
						-3.0
					  ],
					  [
						"▁The",
						-3.0
					  ],
					  [
						"▁sur",
						-3.0
					  ],
					  [
						":",
						-3.0
					  ],
					  [
						"▁une",
						-3.0
					  ],
					  [
						"▁au",
						-3.0
					  ],
					  [
						"▁par",
						-3.0
					  ],
					  [
						"▁-",
						-3.0
					  ],
					  [
						"▁with",
						-3.0
					  ],
					  [
						"▁est",
						-3.0
					  ],
					  [
						"▁qui",
						-3.0
					  ],
					  [
						"▁be",
						-3.0
					  ],
					  [
						"▁by",
						-3.0
					  ],
					  [
						"▁I",
						-3.0
					  ],
					  [
						"▁as",
						-3.0
					  ],
					  [
						"▁",
						-3.0
					  ],
					  [
						";",
						-3.0
					  ],
					  [
						"e",
						-3.0
					  ],
					  [
						"▁are",
						-3.0
					  ],
					  [
						"▁pas",
						-3.0
					  ],
					  [
						"?",
						-3.0
					  ],
					  [
						"▁you",
						-3.0
					  ],
					  [
						"▁aux",
						-3.0
					  ],
					  [
						"▁or",
						-3.0
					  ],
					  [
						"▁\"",
						-3.0
					  ],
					  [
						"▁ou",
						-3.0
					  ],
					  [
						"▁Le",
						-3.0
					  ],
					  [
						"▁it",
						-3.0
					  ],
					  [
						"▁s",
						-3.0
					  ],
					  [
						"a",
						-3.0
					  ],
					  [
						"▁from",
						-3.0
					  ],
					  [
						"▁plus",
						-3.0
					  ],
					  [
						"▁ce",
						-3.0
					  ],
					  [
						"▁this",
						-3.0
					  ],
					  [
						"▁qu",
						-3.0
					  ],
					  [
						"▁was",
						-3.0
					  ],
					  [
						"▁sont",
						-3.0
					  ],
					  [
						"▁at",
						-3.0
					  ],
					  [
						"▁avec",
						-3.0
					  ],
					  [
						"▁not",
						-3.0
					  ],
					  [
						"/",
						-3.0
					  ],
					  [
						"t",
						-3.0
					  ],
					  [
						"▁ne",
						-3.0
					  ],
					  [
						"▁an",
						-3.0
					  ],
					  [
						"▁:",
						-3.0
					  ],
					  [
						"▁have",
						-3.0
					  ],
					  [
						"▁La",
						-3.0
					  ],
					  [
						"▁n",
						-3.0
					  ],
					  [
						"est",
						-3.0
					  ],
					  [
						"▁Les",
						-3.0
					  ],
					  [
						"▁A",
						-3.0
					  ],
					  [
						"▁which",
						-3.0
					  ],
					  [
						"▁will",
						-3.0
					  ],
					  [
						"▁L",
						-3.0
					  ],
					  [
						"▁vous",
						-3.0
					  ],
					  [
						"▁C",
						-3.0
					  ],
					  [
						"▁été",
						-3.0
					  ],
					  [
						"▁ont",
						-3.0
					  ],
					  [
						"▁il",
						-3.0
					  ],
					  [
						"un",
						-3.0
					  ],
					  [
						"▁has",
						-3.0
					  ],
					  [
						"▁se",
						-3.0
					  ],
					  [
						"▁its",
						-3.0
					  ],
					  [
						"▁In",
						-3.0
					  ],
					  [
						"▁all",
						-3.0
					  ],
					  [
						"▁?",
						-3.0
					  ],
					  [
						"▁être",
						-3.0
					  ],
					  [
						"ing",
						-3.0
					  ],
					  [
						").",
						-3.0
					  ],
					  [
						"▁their",
						-3.0
					  ],
					  [
						"▁Il",
						-3.0
					  ],
					  [
						"▁Commission",
						-3.0
					  ],
					  [
						"▁Canada",
						-3.0
					  ],
					  [
						"il",
						-3.0
					  ],
					  [
						"er",
						-3.0
					  ],
					  [
						"▁1",
						-3.0
					  ],
					  [
						"...",
						-3.0
					  ],
					  [
						"d",
						-3.0
					  ],
					  [
						"une",
						-3.0
					  ],
					  [
						"▁son",
						-3.0
					  ],
					  [
						"es",
						-3.0
					  ],
					  [
						"▁can",
						-3.0
					  ],
					  [
						"▁nous",
						-3.0
					  ],
					  [
						"▁your",
						-3.0
					  ],
					  [
						"▁been",
						-3.0
					  ],
					  [
						"),",
						-3.0
					  ],
					  [
						"▁cette",
						-3.0
					  ],
					  [
						"▁also",
						-3.0
					  ],
					  [
						"m",
						-3.0
					  ],
					  [
						"▁we",
						-3.0
					  ],
					  [
						"ed",
						-3.0
					  ],
					  [
						"▁leur",
						-3.0
					  ],
					  [
						"▁other",
						-3.0
					  ],
					  [
						"▁comme",
						-3.0
					  ],
					  [
						"▁were",
						-3.0
					  ],
					  [
						"▁ces",
						-3.0
					  ],
					  [
						"▁pays",
						-3.0
					  ],
					  [
						"▁Je",
						-3.0
					  ],
					  [
						"▁Nations",
						-3.0
					  ],
					  [
						"y",
						-3.0
					  ],
					  [
						"▁En",
						-3.0
					  ],
					  [
						"▁S",
						-3.0
					  ],
					  [
						"▁services",
						-3.0
					  ],
					  [
						"▁c",
						-3.0
					  ],
					  [
						"▁It",
						-3.0
					  ],
					  [
						"r",
						-3.0
					  ],
					  [
						"▁non",
						-3.0
					  ],
					  [
						"▁3",
						-3.0
					  ],
					  [
						"S",
						-3.0
					  ],
					  [
						"▁me",
						-3.0
					  ],
					  [
						"▁2",
						-3.0
					  ],
					  [
						"!",
						-3.0
					  ],
					  [
						"▁sa",
						-3.0
					  ],
					  [
						"▁more",
						-3.0
					  ],
					  [
						"▁fait",
						-3.0
					  ],
					  [
						"\"",
						-3.0
					  ],
					  [
						"A",
						-3.0
					  ],
					  [
						"▁one",
						-3.0
					  ],
					  [
						"▁but",
						-3.0
					  ],
					  [
						"▁«",
						-3.0
					  ],
					  [
						"▁they",
						-3.0
					  ],
					  [
						"▁information",
						-3.0
					  ],
					  [
						"▁M",
						-3.0
					  ],
					  [
						"▁je",
						-3.0
					  ],
					  [
						"re",
						-3.0
					  ],
					  [
						"▁had",
						-3.0
					  ],
					  [
						"▁This",
						-3.0
					  ],
					  [
						"▁should",
						-3.0
					  ],
					  [
						"en",
						-3.0
					  ],
					  [
						"▁ses",
						-3.0
					  ],
					  [
						"▁entre",
						-3.0
					  ],
					  [
						"▁would",
						-3.0
					  ],
					  [
						"C",
						-3.0
					  ],
					  [
						"▁y",
						-3.0
					  ],
					  [
						"▁peut",
						-3.0
					  ],
					  [
						"▁o",
						-3.0
					  ],
					  [
						"▁no",
						-3.0
					  ],
					  [
						"▁4",
						-3.0
					  ],
					  [
						"▁international",
						-3.0
					  ],
					  [
						"▁he",
						-3.0
					  ],
					  [
						"▁si",
						-3.0
					  ],
					  [
						"▁mais",
						-3.0
					  ],
					  [
						"▁out",
						-3.0
					  ],
					  [
						"▁5",
						-3.0
					  ],
					  [
						"▁tout",
						-3.0
					  ],
					  [
						"▁his",
						-3.0
					  ],
					  [
						"▁D",
						-3.0
					  ],
					  [
						"▁développement",
						-3.0
					  ],
					  [
						"▁tous",
						-3.0
					  ],
					  [
						"▁faire",
						-3.0
					  ],
					  [
						"▁Conseil",
						-3.0
					  ],
					  [
						"▁United",
						-3.0
					  ],
					  [
						"on",
						-3.0
					  ],
					  [
						"▁10",
						-3.0
					  ],
					  [
						"▁B",
						-3.0
					  ],
					  [
						"▁who",
						-3.0
					  ],
					  [
						"in",
						-3.0
					  ],
					  [
						"▁new",
						-3.0
					  ],
					  [
						"▁our",
						-3.0
					  ],
					  [
						"▁votre",
						-3.0
					  ],
					  [
						"▁States",
						-3.0
					  ],
					  [
						"▁time",
						-3.0
					  ],
					  [
						"▁there",
						-3.0
					  ],
					  [
						"▁do",
						-3.0
					  ],
					  [
						"▁such",
						-3.0
					  ],
					  [
						"▁under",
						-3.0
					  ],
					  [
						"▁about",
						-3.0
					  ],
					  [
						"▁programme",
						-3.0
					  ],
					  [
						"▁may",
						-3.0
					  ],
					  [
						"▁deux",
						-3.0
					  ],
					  [
						"▁Committee",
						-3.0
					  ],
					  [
						"▁up",
						-3.0
					  ],
					  [
						"▁États",
						-3.0
					  ],
					  [
						"▁ainsi",
						-3.0
					  ],
					  [
						"▁into",
						-3.0
					  ],
					  [
						"▁droits",
						-3.0
					  ],
					  [
						"▁national",
						-3.0
					  ],
					  [
						"ai",
						-3.0
					  ],
					  [
						"▁any",
						-3.0
					  ],
					  [
						"▁You",
						-3.0
					  ],
					  [
						"▁autres",
						-3.0
					  ],
					  [
						"▁travail",
						-3.0
					  ],
					  [
						"▁work",
						-3.0
					  ],
					  [
						"▁European",
						-3.0
					  ],
					  [
						"▁these",
						-3.0
					  ],
					  [
						"▁leurs",
						-3.0
					  ],
					  [
						"▁Council",
						-3.0
					  ],
					  [
						"▁également",
						-3.0
					  ],
					  [
						"c",
						-3.0
					  ],
					  [
						"▁même",
						-3.0
					  ],
					  [
						"▁6",
						-3.0
					  ],
					  [
						"▁part",
						-3.0
					  ],
					  [
						"b",
						-3.0
					  ],
					  [
						"▁public",
						-3.0
					  ],
					  [
						"▁shall",
						-3.0
					  ],
					  [
						"▁bien",
						-3.0
					  ],
					  [
						"▁rapport",
						-3.0
					  ],
					  [
						"▁aussi",
						-3.0
					  ],
					  [
						"▁than",
						-3.0
					  ],
					  [
						"▁On",
						-3.0
					  ],
					  [
						"▁J",
						-3.0
					  ],
					  [
						"▁if",
						-3.0
					  ],
					  [
						"▁E",
						-3.0
					  ],
					  [
						"▁We",
						-3.0
					  ],
					  [
						"▁P",
						-3.0
					  ],
					  [
						"▁so",
						-3.0
					  ],
					  [
						"▁my",
						-3.0
					  ],
					  [
						"▁membres",
						-3.0
					  ],
					  [
						"▁between",
						-3.0
					  ],
					  [
						"ment",
						-3.0
					  ],
					  [
						"ly",
						-3.0
					  ],
					  [
						"▁place",
						-3.0
					  ],
					  [
						"▁only",
						-3.0
					  ],
					  [
						"o",
						-3.0
					  ],
					  [
						"▁development",
						-3.0
					  ],
					  [
						"▁No",
						-3.0
					  ],
					  [
						"▁.",
						-3.0
					  ],
					  [
						"▁m",
						-3.0
					  ],
					  [
						"▁cas",
						-3.0
					  ],
					  [
						"al",
						-3.0
					  ],
					  [
						"▁them",
						-3.0
					  ],
					  [
						"▁countries",
						-3.0
					  ],
					  [
						"▁use",
						-3.0
					  ],
					  [
						"▁protection",
						-3.0
					  ],
					  [
						"▁R",
						-3.0
					  ],
					  [
						"or",
						-3.0
					  ],
					  [
						"▁7",
						-3.0
					  ],
					  [
						"▁point",
						-3.0
					  ],
					  [
						"▁Comité",
						-3.0
					  ],
					  [
						"i",
						-3.0
					  ],
					  [
						"▁made",
						-3.0
					  ],
					  [
						"z",
						-3.0
					  ],
					  [
						"▁sous",
						-3.0
					  ],
					  [
						"▁T",
						-3.0
					  ],
					  [
						"▁8",
						-3.0
					  ],
					  [
						"▁session",
						-3.0
					  ],
					  [
						"▁what",
						-3.0
					  ],
					  [
						"▁two",
						-3.0
					  ],
					  [
						"▁service",
						-3.0
					  ],
					  [
						"▁people",
						-3.0
					  ],
					  [
						"é",
						-3.0
					  ],
					  [
						"▁sécurité",
						-3.0
					  ],
					  [
						"▁well",
						-3.0
					  ],
					  [
						"▁Dans",
						-3.0
					  ],
					  [
						"▁[",
						-3.0
					  ],
					  [
						"▁contre",
						-3.0
					  ],
					  [
						"▁must",
						-3.0
					  ],
					  [
						"▁15",
						-3.0
					  ],
					  [
						"ant",
						-3.0
					  ],
					  [
						"▁doit",
						-3.0
					  ],
					  [
						"▁dont",
						-3.0
					  ],
					  [
						"▁Convention",
						-3.0
					  ],
					  [
						"▁elle",
						-3.0
					  ],
					  [
						"▁some",
						-3.0
					  ],
					  [
						"▁when",
						-3.0
					  ],
					  [
						"▁those",
						-3.0
					  ],
					  [
						"▁18",
						-3.0
					  ],
					  [
						"▁!",
						-3.0
					  ],
					  [
						"▁report",
						-3.0
					  ],
					  [
						"▁first",
						-3.0
					  ],
					  [
						"▁sans",
						-3.0
					  ],
					  [
						"▁était",
						-3.0
					  ],
					  [
						"▁personnes",
						-3.0
					  ],
					  [
						"▁droit",
						-3.0
					  ],
					  [
						"▁support",
						-3.0
					  ],
					  [
						"▁question",
						-3.0
					  ],
					  [
						"▁>",
						-3.0
					  ],
					  [
						"▁%",
						-3.0
					  ],
					  [
						"▁years",
						-3.0
					  ],
					  [
						"▁conditions",
						-3.0
					  ],
					  [
						"▁F",
						-3.0
					  ],
					  [
						"▁programmes",
						-3.0
					  ],
					  [
						"▁social",
						-3.0
					  ],
					  [
						"▁30",
						-3.0
					  ],
					  [
						"▁20",
						-3.0
					  ],
					  [
						"g",
						-3.0
					  ],
					  [
						"▁mesures",
						-3.0
					  ],
					  [
						"▁où",
						-3.0
					  ],
					  [
						"▁9",
						-3.0
					  ],
					  [
						"nt",
						-3.0
					  ],
					  [
						"▁over",
						-3.0
					  ],
					  [
						"▁Pour",
						-3.0
					  ],
					  [
						"▁lui",
						-3.0
					  ],
					  [
						"▁re",
						-3.0
					  ],
					  [
						"▁situation",
						-3.0
					  ],
					  [
						"▁12",
						-3.0
					  ],
					  [
						"▁cours",
						-3.0
					  ],
					  [
						"▁through",
						-3.0
					  ],
					  [
						"▁possible",
						-3.0
					  ],
					  [
						"L",
						-3.0
					  ],
					  [
						"▁like",
						-3.0
					  ],
					  [
						"▁projet",
						-3.0
					  ],
					  [
						"▁Nous",
						-3.0
					  ],
					  [
						"▁rights",
						-3.0
					  ],
					  [
						"]",
						-3.0
					  ],
					  [
						"▁per",
						-3.0
					  ],
					  [
						"▁important",
						-3.0
					  ],
					  [
						"2",
						-3.0
					  ],
					  [
						"▁partie",
						-3.0
					  ],
					  [
						"▁De",
						-3.0
					  ],
					  [
						"B",
						-3.0
					  ],
					  [
						"▁Ce",
						-3.0
					  ],
					  [
						"▁including",
						-3.0
					  ],
					  [
						"th",
						-3.0
					  ],
					  [
						"▁system",
						-3.0
					  ],
					  [
						"▁plan",
						-3.0
					  ],
					  [
						"▁know",
						-3.0
					  ],
					  [
						"▁questions",
						-3.0
					  ],
					  [
						"▁–",
						-3.0
					  ],
					  [
						"▁He",
						-3.0
					  ],
					  [
						"▁Vous",
						-3.0
					  ],
					  [
						"▁soit",
						-3.0
					  ],
					  [
						"▁where",
						-3.0
					  ],
					  [
						"▁year",
						-3.0
					  ],
					  [
						"▁activités",
						-3.0
					  ],
					  [
						"▁right",
						-3.0
					  ],
					  [
						"▁Si",
						-3.0
					  ],
					  [
						"▁j",
						-3.0
					  ],
					  [
						"le",
						-3.0
					  ],
					  [
						"▁Unies",
						-3.0
					  ],
					  [
						"▁need",
						-3.0
					  ],
					  [
						"▁mise",
						-3.0
					  ],
					  [
						"▁compte",
						-3.0
					  ],
					  [
						"▁p",
						-3.0
					  ],
					  [
						"à",
						-3.0
					  ],
					  [
						"▁G",
						-3.0
					  ],
					  [
						"▁général",
						-3.0
					  ],
					  [
						"▁cadre",
						-3.0
					  ],
					  [
						"autres",
						-3.0
					  ],
					  [
						"▁toutes",
						-3.0
					  ],
					  [
						"n",
						-3.0
					  ],
					  [
						"▁number",
						-3.0
					  ],
					  [
						"▁très",
						-3.0
					  ],
					  [
						"E",
						-3.0
					  ],
					  [
						"▁us",
						-3.0
					  ],
					  [
						"▁système",
						-3.0
					  ],
					  [
						"▁jour",
						-3.0
					  ],
					  [
						"▁notre",
						-3.0
					  ],
					  [
						"▁données",
						-3.0
					  ],
					  [
						"▁could",
						-3.0
					  ],
					  [
						"▁afin",
						-3.0
					  ],
					  [
						"▁Un",
						-3.0
					  ],
					  [
						"l",
						-3.0
					  ],
					  [
						"▁parties",
						-3.0
					  ],
					  [
						"▁her",
						-3.0
					  ],
					  [
						"▁—",
						-3.0
					  ],
					  [
						"▁take",
						-3.0
					  ],
					  [
						"D",
						-3.0
					  ],
					  [
						"▁ans",
						-3.0
					  ],
					  [
						"▁b",
						-3.0
					  ],
					  [
						"▁nombre",
						-3.0
					  ],
					  [
						"▁N",
						-3.0
					  ],
					  [
						"▁For",
						-3.0
					  ],
					  [
						"▁tu",
						-3.0
					  ],
					  [
						"▁peuvent",
						-3.0
					  ],
					  [
						"▁order",
						-3.0
					  ],
					  [
						"▁produits",
						-3.0
					  ],
					  [
						"▁moins",
						-3.0
					  ],
					  [
						"▁Member",
						-3.0
					  ],
					  [
						"▁enfants",
						-3.0
					  ],
					  [
						"▁santé",
						-3.0
					  ],
					  [
						"ait",
						-3.0
					  ],
					  [
						"▁femmes",
						-3.0
					  ],
					  [
						"▁within",
						-3.0
					  ],
					  [
						"▁temps",
						-3.0
					  ],
					  [
						"▁make",
						-3.0
					  ],
					  [
						"h",
						-3.0
					  ],
					  [
						"(",
						-3.0
					  ],
					  [
						"▁&",
						-3.0
					  ],
					  [
						"▁used",
						-3.0
					  ],
					  [
						"▁concernant",
						-3.0
					  ],
					  [
						"▁And",
						-3.0
					  ],
					  [
						"▁11",
						-3.0
					  ],
					  [
						"▁State",
						-3.0
					  ],
					  [
						"▁human",
						-3.0
					  ],
					  [
						"▁long",
						-3.0
					  ],
					  [
						"▁À",
						-3.0
					  ],
					  [
						"▁most",
						-3.0
					  ],
					  [
						"ci",
						-3.0
					  ],
					  [
						"▁matière",
						-3.0
					  ],
					  [
						"▁site",
						-3.0
					  ],
					  [
						"▁article",
						-3.0
					  ],
					  [
						"▁»",
						-3.0
					  ],
					  [
						"▁application",
						-3.0
					  ],
					  [
						"▁ils",
						-3.0
					  ],
					  [
						"▁Et",
						-3.0
					  ],
					  [
						"▁very",
						-3.0
					  ],
					  [
						"▁base",
						-3.0
					  ],
					  [
						"▁politique",
						-3.0
					  ],
					  [
						"▁avait",
						-3.0
					  ],
					  [
						"▁just",
						-3.0
					  ],
					  [
						"▁activities",
						-3.0
					  ],
					  [
						"article",
						-3.0
					  ],
					  [
						"▁Mr",
						-3.0
					  ],
					  [
						"▁notamment",
						-3.0
					  ],
					  [
						"ce",
						-3.0
					  ],
					  [
						"▁What",
						-3.0
					  ],
					  [
						"elle",
						-3.0
					  ],
					  [
						"▁niveau",
						-3.0
					  ],
					  [
						"▁As",
						-3.0
					  ],
					  [
						"▁demande",
						-3.0
					  ],
					  [
						"▁efforts",
						-3.0
					  ],
					  [
						"▁General",
						-3.0
					  ],
					  [
						"▁après",
						-3.0
					  ],
					  [
						"▁production",
						-3.0
					  ],
					  [
						"▁sera",
						-3.0
					  ],
					  [
						"▁following",
						-3.0
					  ],
					  [
						"▁14",
						-3.0
					  ],
					  [
						"▁action",
						-3.0
					  ],
					  [
						"▁If",
						-3.0
					  ],
					  [
						"▁him",
						-3.0
					  ],
					  [
						"▁vie",
						-3.0
					  ],
					  [
						"ation",
						-3.0
					  ],
					  [
						"▁fois",
						-3.0
					  ],
					  [
						"▁women",
						-3.0
					  ],
					  [
						"▁being",
						-3.0
					  ],
					  [
						"▁Article",
						-3.0
					  ],
					  [
						"▁against",
						-3.0
					  ],
					  [
						"▁H",
						-3.0
					  ],
					  [
						"▁now",
						-3.0
					  ],
					  [
						"▁toute",
						-3.0
					  ],
					  [
						"▁européenne",
						-3.0
					  ],
					  [
						"▁16",
						-3.0
					  ],
					  [
						"▁after",
						-3.0
					  ],
					  [
						"▁13",
						-3.0
					  ],
					  [
						"▁provide",
						-3.0
					  ],
					  [
						"▁paragraphe",
						-3.0
					  ],
					  [
						"▁V",
						-3.0
					  ],
					  [
						"▁date",
						-3.0
					  ],
					  [
						"▁ça",
						-3.0
					  ],
					  [
						"▁country",
						-3.0
					  ],
					  [
						"▁17",
						-3.0
					  ],
					  [
						"▁gestion",
						-3.0
					  ],
					  [
						"▁children",
						-3.0
					  ],
					  [
						"P",
						-3.0
					  ],
					  [
						"▁Une",
						-3.0
					  ],
					  [
						"▁avant",
						-3.0
					  ],
					  [
						"▁each",
						-3.0
					  ],
					  [
						"▁respect",
						-3.0
					  ],
					  [
						"▁measures",
						-3.0
					  ],
					  [
						"▁doivent",
						-3.0
					  ],
					  [
						"▁during",
						-3.0
					  ],
					  [
						"▁same",
						-3.0
					  ],
					  [
						"ll",
						-3.0
					  ],
					  [
						"▁document",
						-3.0
					  ],
					  [
						"▁here",
						-3.0
					  ],
					  [
						"▁population",
						-3.0
					  ],
					  [
						"▁encore",
						-3.0
					  ],
					  [
						"▁many",
						-3.0
					  ],
					  [
						"f",
						-3.0
					  ],
					  [
						"▁e",
						-3.0
					  ],
					  [
						"▁générale",
						-3.0
					  ],
					  [
						"▁recherche",
						-3.0
					  ],
					  [
						"▁before",
						-3.0
					  ],
					  [
						"▁To",
						-3.0
					  ],
					  [
						"ils",
						-3.0
					  ],
					  [
						"▁health",
						-3.0
					  ],
					  [
						"▁Tu",
						-3.0
					  ],
					  [
						"▁t",
						-3.0
					  ],
					  [
						"▁avoir",
						-3.0
					  ],
					  [
						"▁available",
						-3.0
					  ],
					  [
						"▁autre",
						-3.0
					  ],
					  [
						"▁Au",
						-3.0
					  ],
					  [
						"▁cet",
						-3.0
					  ],
					  [
						"▁vue",
						-3.0
					  ],
					  [
						"▁data",
						-3.0
					  ],
					  [
						"an",
						-3.0
					  ],
					  [
						"être",
						-3.0
					  ],
					  [
						"▁économique",
						-3.0
					  ],
					  [
						"▁politiques",
						-3.0
					  ],
					  [
						"▁Europe",
						-3.0
					  ],
					  [
						"▁mon",
						-3.0
					  ],
					  [
						"▁way",
						-3.0
					  ],
					  [
						"▁monde",
						-3.0
					  ],
					  [
						"▁Elle",
						-3.0
					  ],
					  [
						"▁process",
						-3.0
					  ],
					  [
						"▁Government",
						-3.0
					  ],
					  [
						"de",
						-3.0
					  ],
					  [
						"▁total",
						-3.0
					  ],
					  [
						"▁law",
						-3.0
					  ],
					  [
						"able",
						-3.0
					  ],
					  [
						"▁ressources",
						-3.0
					  ],
					  [
						"▁25",
						-3.0
					  ],
					  [
						"ve",
						-3.0
					  ],
					  [
						"▁level",
						-3.0
					  ],
					  [
						"▁formation",
						-3.0
					  ],
					  [
						"▁provided",
						-3.0
					  ],
					  [
						"▁chaque",
						-3.0
					  ],
					  [
						"▁world",
						-3.0
					  ],
					  [
						"▁institutions",
						-3.0
					  ],
					  [
						"▁dit",
						-3.0
					  ],
					  [
						"▁policy",
						-3.0
					  ],
					  [
						"▁K",
						-3.0
					  ],
					  [
						"▁car",
						-3.0
					  ],
					  [
						"▁case",
						-3.0
					  ],
					  [
						"p",
						-3.0
					  ],
					  [
						"▁Cette",
						-3.0
					  ],
					  [
						"▁don",
						-3.0
					  ],
					  [
						"T",
						-3.0
					  ],
					  [
						"▁both",
						-3.0
					  ],
					  [
						"▁economic",
						-3.0
					  ],
					  [
						"▁_",
						-3.0
					  ],
					  [
						"▁International",
						-3.0
					  ],
					  [
						"▁19",
						-3.0
					  ],
					  [
						".\"",
						-3.0
					  ],
					  [
						"ont",
						-3.0
					  ],
					  [
						"▁depuis",
						-3.0
					  ],
					  [
						"▁how",
						-3.0
					  ],
					  [
						"▁type",
						-3.0
					  ],
					  [
						"▁lieu",
						-3.0
					  ],
					  [
						"▁three",
						-3.0
					  ],
					  [
						"▁set",
						-3.0
					  ],
					  [
						"▁Union",
						-3.0
					  ],
					  [
						"▁trois",
						-3.0
					  ],
					  [
						"1",
						-3.0
					  ],
					  [
						"▁said",
						-3.0
					  ],
					  [
						"F",
						-3.0
					  ],
					  [
						"▁period",
						-3.0
					  ],
					  [
						"▁get",
						-3.0
					  ],
					  [
						"▁décision",
						-3.0
					  ],
					  [
						"▁implementation",
						-3.0
					  ],
					  [
						"▁Canadian",
						-3.0
					  ],
					  [
						"▁<",
						-3.0
					  ],
					  [
						"▁France",
						-3.0
					  ],
					  [
						"▁suis",
						-3.0
					  ],
					  [
						"M",
						-3.0
					  ],
					  [
						"▁There",
						-3.0
					  ],
					  [
						"I",
						-3.0
					  ],
					  [
						"▁nos",
						-3.0
					  ],
					  [
						"▁personnel",
						-3.0
					  ],
					  [
						"▁24",
						-3.0
					  ],
					  [
						"▁règlement",
						-3.0
					  ],
					  [
						"▁financial",
						-3.0
					  ],
					  [
						"it",
						-3.0
					  ],
					  [
						"▁because",
						-3.0
					  ],
					  [
						"▁loi",
						-3.0
					  ],
					  [
						"▁particular",
						-3.0
					  ],
					  [
						"▁meeting",
						-3.0
					  ],
					  [
						"▁processus",
						-3.0
					  ],
					  [
						"ons",
						-3.0
					  ],
					  [
						"▁ensure",
						-3.0
					  ],
					  [
						"▁internationale",
						-3.0
					  ],
					  [
						"▁area",
						-3.0
					  ],
					  [
						"▁Par",
						-3.0
					  ],
					  [
						"▁gouvernement",
						-3.0
					  ],
					  [
						"▁see",
						-3.0
					  ],
					  [
						"▁participation",
						-3.0
					  ],
					  [
						"▁good",
						-3.0
					  ],
					  [
						"▁Des",
						-3.0
					  ],
					  [
						"▁/",
						-3.0
					  ],
					  [
						"au",
						-3.0
					  ],
					  [
						"H",
						-3.0
					  ],
					  [
						"▁Programme",
						-3.0
					  ],
					  [
						"▁management",
						-3.0
					  ],
					  [
						"▁certain",
						-3.0
					  ],
					  [
						"▁ma",
						-3.0
					  ],
					  [
						"ez",
						-3.0
					  ],
					  [
						"▁then",
						-3.0
					  ],
					  [
						"▁did",
						-3.0
					  ],
					  [
						"▁That",
						-3.0
					  ],
					  [
						"▁resolution",
						-3.0
					  ],
					  [
						"▁members",
						-3.0
					  ],
					  [
						"▁New",
						-3.0
					  ],
					  [
						"et",
						-3.0
					  ],
					  [
						"▁donc",
						-3.0
					  ],
					  [
						"▁she",
						-3.0
					  ],
					  [
						"▁résolution",
						-3.0
					  ],
					  [
						"▁budget",
						-3.0
					  ],
					  [
						"3",
						-3.0
					  ],
					  [
						"▁marché",
						-3.0
					  ],
					  [
						"▁transport",
						-3.0
					  ],
					  [
						"▁selon",
						-3.0
					  ],
					  [
						"▁without",
						-3.0
					  ],
					  [
						"ent",
						-3.0
					  ],
					  [
						"▁high",
						-3.0
					  ],
					  [
						"▁local",
						-3.0
					  ],
					  [
						"▁coopération",
						-3.0
					  ],
					  [
						"▁fin",
						-3.0
					  ],
					  [
						"G",
						-3.0
					  ],
					  [
						"▁day",
						-3.0
					  ],
					  [
						"▁pendant",
						-3.0
					  ],
					  [
						"information",
						-3.0
					  ],
					  [
						"▁They",
						-3.0
					  ],
					  [
						"ur",
						-3.0
					  ],
					  [
						"▁assistance",
						-3.0
					  ],
					  [
						"▁Assembly",
						-3.0
					  ],
					  [
						"▁secteur",
						-3.0
					  ],
					  [
						"▁continue",
						-3.0
					  ],
					  [
						"▁issues",
						-3.0
					  ],
					  [
						"x",
						-3.0
					  ],
					  [
						"▁période",
						-3.0
					  ],
					  [
						"▁21",
						-3.0
					  ],
					  [
						"▁jusqu",
						-3.0
					  ],
					  [
						"▁But",
						-3.0
					  ],
					  [
						"▁products",
						-3.0
					  ],
					  [
						"▁documents",
						-3.0
					  ],
					  [
						"▁Community",
						-3.0
					  ],
					  [
						"▁go",
						-3.0
					  ],
					  [
						"▁life",
						-3.0
					  ],
					  [
						"▁areas",
						-3.0
					  ],
					  [
						"ca",
						-3.0
					  ],
					  [
						"R",
						-3.0
					  ],
					  [
						"▁prendre",
						-3.0
					  ],
					  [
						"▁résultats",
						-3.0
					  ],
					  [
						"▁further",
						-3.0
					  ],
					  [
						"▁want",
						-3.0
					  ],
					  [
						"▁Act",
						-3.0
					  ],
					  [
						"▁informations",
						-3.0
					  ],
					  [
						"▁training",
						-3.0
					  ],
					  [
						"▁main",
						-3.0
					  ],
					  [
						"▁groupe",
						-3.0
					  ],
					  [
						"▁At",
						-3.0
					  ],
					  [
						"▁All",
						-3.0
					  ],
					  [
						"▁page",
						-3.0
					  ],
					  [
						"▁31",
						-3.0
					  ],
					  [
						"▁access",
						-3.0
					  ],
					  [
						"▁even",
						-3.0
					  ],
					  [
						"▁decision",
						-3.0
					  ],
					  [
						"▁plusieurs",
						-3.0
					  ],
					  [
						"▁mesure",
						-3.0
					  ],
					  [
						"▁titre",
						-3.0
					  ],
					  [
						"▁années",
						-3.0
					  ],
					  [
						"▁market",
						-3.0
					  ],
					  [
						"N",
						-3.0
					  ],
					  [
						"▁personne",
						-3.0
					  ],
					  [
						"▁security",
						-3.0
					  ],
					  [
						"▁Re",
						-3.0
					  ],
					  [
						"▁mois",
						-3.0
					  ],
					  [
						"▁présent",
						-3.0
					  ],
					  [
						"▁000",
						-3.0
					  ],
					  [
						"▁does",
						-3.0
					  ],
					  [
						"▁ceux",
						-3.0
					  ],
					  [
						"▁nouveau",
						-3.0
					  ],
					  [
						"▁help",
						-3.0
					  ],
					  [
						"▁position",
						-3.0
					  ],
					  [
						"▁section",
						-3.0
					  ],
					  [
						"as",
						-3.0
					  ],
					  [
						"▁since",
						-3.0
					  ],
					  [
						"▁Ces",
						-3.0
					  ],
					  [
						"com",
						-3.0
					  ],
					  [
						"▁organisations",
						-3.0
					  ],
					  [
						"▁particulier",
						-3.0
					  ],
					  [
						"▁EU",
						-3.0
					  ],
					  [
						"▁première",
						-3.0
					  ],
					  [
						"▁dollars",
						-3.0
					  ],
					  [
						"▁Mais",
						-3.0
					  ],
					  [
						"▁compris",
						-3.0
					  ],
					  [
						"▁different",
						-3.0
					  ],
					  [
						"vous",
						-3.0
					  ],
					  [
						"▁Groupe",
						-3.0
					  ],
					  [
						"▁resources",
						-3.0
					  ],
					  [
						"us",
						-3.0
					  ],
					  [
						"▁façon",
						-3.0
					  ],
					  [
						"to",
						-3.0
					  ],
					  [
						"▁taken",
						-3.0
					  ],
					  [
						"▁nom",
						-3.0
					  ],
					  [
						"▁government",
						-3.0
					  ],
					  [
						"▁million",
						-3.0
					  ],
					  [
						"▁...",
						-3.0
					  ],
					  [
						"▁certains",
						-3.0
					  ],
					  [
						"▁large",
						-3.0
					  ],
					  [
						"▁mettre",
						-3.0
					  ],
					  [
						"▁qualité",
						-3.0
					  ],
					  [
						"▁devrait",
						-3.0
					  ],
					  [
						"▁premier",
						-3.0
					  ],
					  [
						"▁cent",
						-3.0
					  ],
					  [
						"▁homme",
						-3.0
					  ],
					  [
						"▁22",
						-3.0
					  ],
					  [
						"▁inter",
						-3.0
					  ],
					  [
						"▁end",
						-3.0
					  ],
					  [
						"eau",
						-3.0
					  ],
					  [
						"▁last",
						-3.0
					  ],
					  [
						"▁prix",
						-3.0
					  ],
					  [
						"Union",
						-3.0
					  ],
					  [
						"▁O",
						-3.0
					  ],
					  [
						"▁vers",
						-3.0
					  ],
					  [
						"▁dispositions",
						-3.0
					  ],
					  [
						"▁note",
						-3.0
					  ],
					  [
						"▁tant",
						-3.0
					  ],
					  [
						"▁change",
						-3.0
					  ],
					  [
						"▁domaine",
						-3.0
					  ],
					  [
						"▁projets",
						-3.0
					  ],
					  [
						"▁vos",
						-3.0
					  ],
					  [
						"▁back",
						-3.0
					  ],
					  [
						"▁Development",
						-3.0
					  ],
					  [
						"▁entreprises",
						-3.0
					  ],
					  [
						"k",
						-3.0
					  ],
					  [
						"▁toujours",
						-3.0
					  ],
					  [
						"▁exemple",
						-3.0
					  ],
					  [
						"▁project",
						-3.0
					  ],
					  [
						"▁December",
						-3.0
					  ],
					  [
						"▁société",
						-3.0
					  ],
					  [
						"▁moment",
						-3.0
					  ],
					  [
						"▁cooperation",
						-3.0
					  ],
					  [
						"▁23",
						-3.0
					  ],
					  [
						"▁peu",
						-3.0
					  ],
					  [
						"▁savoir",
						-3.0
					  ],
					  [
						"▁based",
						-3.0
					  ],
					  [
						"▁relevant",
						-3.0
					  ],
					  [
						"▁lors",
						-3.0
					  ],
					  [
						"▁Président",
						-3.0
					  ],
					  [
						"▁jours",
						-3.0
					  ],
					  [
						"▁étaient",
						-3.0
					  ],
					  [
						"▁manière",
						-3.0
					  ],
					  [
						"age",
						-3.0
					  ],
					  [
						"▁50",
						-3.0
					  ],
					  [
						"▁va",
						-3.0
					  ],
					  [
						"▁Group",
						-3.0
					  ],
					  [
						"▁produit",
						-3.0
					  ],
					  [
						"▁conformément",
						-3.0
					  ],
					  [
						"▁force",
						-3.0
					  ],
					  [
						");",
						-3.0
					  ],
					  [
						"up",
						-3.0
					  ],
					  [
						"▁0",
						-3.0
					  ],
					  [
						"▁research",
						-3.0
					  ],
					  [
						"▁Centre",
						-3.0
					  ],
					  [
						"▁working",
						-3.0
					  ],
					  [
						"K",
						-3.0
					  ],
					  [
						"▁So",
						-3.0
					  ],
					  [
						"▁nature",
						-3.0
					  ],
					  [
						"▁déjà",
						-3.0
					  ],
					  [
						"▁œuvre",
						-3.0
					  ],
					  [
						"ra",
						-3.0
					  ],
					  [
						"▁necessary",
						-3.0
					  ],
					  [
						"▁décembre",
						-3.0
					  ],
					  [
						"▁own",
						-3.0
					  ],
					  [
						"▁view",
						-3.0
					  ],
					  [
						"▁down",
						-3.0
					  ],
					  [
						"▁paragraph",
						-3.0
					  ],
					  [
						"▁II",
						-3.0
					  ],
					  [
						"General",
						-3.0
					  ],
					  [
						"▁Secretary",
						-3.0
					  ],
					  [
						"\".",
						-3.0
					  ],
					  [
						"▁contrôle",
						-3.0
					  ],
					  [
						"▁grande",
						-3.0
					  ],
					  [
						"▁ici",
						-3.0
					  ],
					  [
						"▁avons",
						-3.0
					  ],
					  [
						"▁President",
						-3.0
					  ],
					  [
						"ne",
						-3.0
					  ],
					  [
						"▁millions",
						-3.0
					  ],
					  [
						"la",
						-3.0
					  ],
					  [
						"▁€",
						-3.0
					  ],
					  [
						"the",
						-3.0
					  ],
					  [
						"▁ci",
						-3.0
					  ],
					  [
						"V",
						-3.0
					  ],
					  [
						"▁;",
						-3.0
					  ],
					  [
						"▁police",
						-3.0
					  ],
					  [
						"▁regard",
						-3.0
					  ],
					  [
						"▁mis",
						-3.0
					  ],
					  [
						"▁points",
						-3.0
					  ],
					  [
						"▁nouvelle",
						-3.0
					  ],
					  [
						"▁education",
						-3.0
					  ],
					  [
						"▁présente",
						-3.0
					  ],
					  [
						"▁second",
						-3.0
					  ],
					  [
						"▁Regulation",
						-3.0
					  ],
					  [
						"▁communication",
						-3.0
					  ],
					  [
						"▁National",
						-3.0
					  ],
					  [
						"▁while",
						-3.0
					  ],
					  [
						"ic",
						-3.0
					  ],
					  [
						"▁Ils",
						-3.0
					  ],
					  [
						"ers",
						-3.0
					  ],
					  [
						"▁État",
						-3.0
					  ],
					  [
						"▁Republic",
						-3.0
					  ],
					  [
						"▁general",
						-3.0
					  ],
					  [
						"▁organizations",
						-3.0
					  ],
					  [
						"▁regional",
						-3.0
					  ],
					  [
						"▁group",
						-3.0
					  ],
					  [
						"▁required",
						-3.0
					  ],
					  [
						"▁violence",
						-3.0
					  ],
					  [
						"▁water",
						-3.0
					  ],
					  [
						"▁justice",
						-3.0
					  ],
					  [
						"EC",
						-3.0
					  ],
					  [
						"▁co",
						-3.0
					  ],
					  [
						"▁faut",
						-3.0
					  ],
					  [
						"»",
						-3.0
					  ],
					  [
						"▁community",
						-3.0
					  ],
					  [
						"▁seulement",
						-3.0
					  ],
					  [
						"▁concerne",
						-3.0
					  ],
					  [
						"▁legal",
						-3.0
					  ],
					  [
						"▁taux",
						-3.0
					  ],
					  [
						"▁seront",
						-3.0
					  ],
					  [
						"▁paix",
						-3.0
					  ],
					  [
						"aient",
						-3.0
					  ],
					  [
						"_",
						-3.0
					  ],
					  [
						"▁June",
						-3.0
					  ],
					  [
						"▁basis",
						-3.0
					  ],
					  [
						"▁région",
						-3.0
					  ],
					  [
						"▁européen",
						-3.0
					  ],
					  [
						"▁Secrétaire",
						-3.0
					  ],
					  [
						"▁cela",
						-3.0
					  ],
					  [
						"▁accordance",
						-3.0
					  ],
					  [
						"▁moi",
						-3.0
					  ],
					  [
						"▁100",
						-3.0
					  ],
					  [
						"▁full",
						-3.0
					  ],
					  [
						"▁nouvelles",
						-3.0
					  ],
					  [
						"▁Office",
						-3.0
					  ],
					  [
						"▁1.",
						-3.0
					  ],
					  [
						"▁DE",
						-3.0
					  ],
					  [
						"▁grand",
						-3.0
					  ],
					  [
						"▁person",
						-3.0
					  ],
					  [
						"▁special",
						-3.0
					  ],
					  [
						"▁still",
						-3.0
					  ],
					  [
						"▁2006",
						-3.0
					  ],
					  [
						"▁business",
						-3.0
					  ],
					  [
						"▁think",
						-3.0
					  ],
					  [
						"O",
						-3.0
					  ],
					  [
						"▁means",
						-3.0
					  ],
					  [
						"▁present",
						-3.0
					  ],
					  [
						"▁future",
						-3.0
					  ],
					  [
						"▁rôle",
						-3.0
					  ],
					  [
						"▁account",
						-3.0
					  ],
					  [
						"▁chez",
						-3.0
					  ],
					  [
						"▁28",
						-3.0
					  ],
					  [
						"▁These",
						-3.0
					  ],
					  [
						"▁27",
						-3.0
					  ],
					  [
						"▁alors",
						-3.0
					  ],
					  [
						"W",
						-3.0
					  ],
					  [
						"▁besoin",
						-3.0
					  ],
					  [
						"▁given",
						-3.0
					  ],
					  [
						"▁travaux",
						-3.0
					  ],
					  [
						"▁Conference",
						-3.0
					  ],
					  [
						"▁suite",
						-3.0
					  ],
					  [
						"▁However",
						-3.0
					  ],
					  [
						"▁objectifs",
						-3.0
					  ],
					  [
						"▁centre",
						-3.0
					  ],
					  [
						"les",
						-3.0
					  ],
					  [
						"▁political",
						-3.0
					  ],
					  [
						"▁juin",
						-3.0
					  ],
					  [
						"▁days",
						-3.0
					  ],
					  [
						"▁ligne",
						-3.0
					  ],
					  [
						"ou",
						-3.0
					  ],
					  [
						"▁review",
						-3.0
					  ],
					  [
						"▁among",
						-3.0
					  ],
					  [
						"▁avez",
						-3.0
					  ],
					  [
						"▁specific",
						-3.0
					  ],
					  [
						"▁held",
						-3.0
					  ],
					  [
						"▁--",
						-3.0
					  ],
					  [
						"▁eu",
						-3.0
					  ],
					  [
						"▁God",
						-3.0
					  ],
					  [
						"▁effective",
						-3.0
					  ],
					  [
						"▁h",
						-3.0
					  ],
					  [
						"▁adopted",
						-3.0
					  ],
					  [
						"▁2005",
						-3.0
					  ],
					  [
						"▁best",
						-3.0
					  ],
					  [
						"▁26",
						-3.0
					  ],
					  [
						"©",
						-3.0
					  ],
					  [
						"▁include",
						-3.0
					  ],
					  [
						"▁free",
						-3.0
					  ],
					  [
						"▁Parties",
						-3.0
					  ],
					  [
						"man",
						-3.0
					  ],
					  [
						"▁May",
						-3.0
					  ],
					  [
						"▁persons",
						-3.0
					  ],
					  [
						"▁come",
						-3.0
					  ],
					  [
						"▁te",
						-3.0
					  ],
					  [
						"▁ayant",
						-3.0
					  ],
					  [
						"▁2007",
						-3.0
					  ],
					  [
						"▁much",
						-3.0
					  ],
					  [
						"▁elles",
						-3.0
					  ],
					  [
						"▁renseignements",
						-3.0
					  ],
					  [
						"▁voir",
						-3.0
					  ],
					  [
						"ie",
						-3.0
					  ],
					  [
						"▁needs",
						-3.0
					  ],
					  [
						"CE",
						-3.0
					  ],
					  [
						"▁trade",
						-3.0
					  ],
					  [
						"▁Bureau",
						-3.0
					  ],
					  [
						"▁results",
						-3.0
					  ],
					  [
						"is",
						-3.0
					  ],
					  [
						"▁celui",
						-3.0
					  ],
					  [
						"▁Service",
						-3.0
					  ],
					  [
						"▁form",
						-3.0
					  ],
					  [
						"▁requirements",
						-3.0
					  ],
					  [
						"▁actions",
						-3.0
					  ],
					  [
						"▁ré",
						-3.0
					  ],
					  [
						"▁find",
						-3.0
					  ],
					  [
						"▁role",
						-3.0
					  ],
					  [
						"The",
						-3.0
					  ],
					  [
						"▁cause",
						-3.0
					  ],
					  [
						"▁République",
						-3.0
					  ],
					  [
						"▁appropriate",
						-3.0
					  ],
					  [
						"▁control",
						-3.0
					  ],
					  [
						"▁dire",
						-3.0
					  ],
					  [
						"▁laquelle",
						-3.0
					  ],
					  [
						"▁Rights",
						-3.0
					  ],
					  [
						"▁sector",
						-3.0
					  ],
					  [
						"▁cases",
						-3.0
					  ],
					  [
						"▁relatives",
						-3.0
					  ],
					  [
						"▁importance",
						-3.0
					  ],
					  [
						"▁related",
						-3.0
					  ],
					  [
						"▁groupes",
						-3.0
					  ],
					  [
						"▁Security",
						-3.0
					  ],
					  [
						"▁beaucoup",
						-3.0
					  ],
					  [
						"▁problèmes",
						-3.0
					  ],
					  [
						"▁soient",
						-3.0
					  ],
					  [
						"▁année",
						-3.0
					  ],
					  [
						"▁found",
						-3.0
					  ],
					  [
						"▁partir",
						-3.0
					  ],
					  [
						"▁nationale",
						-3.0
					  ],
					  [
						"▁W",
						-3.0
					  ],
					  [
						"▁With",
						-3.0
					  ],
					  [
						"▁small",
						-3.0
					  ],
					  [
						"▁family",
						-3.0
					  ],
					  [
						"▁An",
						-3.0
					  ],
					  [
						"▁effet",
						-3.0
					  ],
					  [
						"▁1,",
						-3.0
					  ],
					  [
						"▁party",
						-3.0
					  ],
					  [
						"▁draft",
						-3.0
					  ],
					  [
						"▁man",
						-3.0
					  ],
					  [
						"▁face",
						-3.0
					  ],
					  [
						"▁increase",
						-3.0
					  ],
					  [
						"▁example",
						-3.0
					  ],
					  [
						"▁established",
						-3.0
					  ],
					  [
						"▁2004",
						-3.0
					  ],
					  [
						"▁give",
						-3.0
					  ],
					  [
						"▁Services",
						-3.0
					  ],
					  [
						"J",
						-3.0
					  ],
					  [
						"▁raison",
						-3.0
					  ],
					  [
						"▁nouveaux",
						-3.0
					  ],
					  [
						"▁quelques",
						-3.0
					  ],
					  [
						"▁fonction",
						-3.0
					  ],
					  [
						"▁là",
						-3.0
					  ],
					  [
						"▁g",
						-3.0
					  ],
					  [
						"▁discrimination",
						-3.0
					  ],
					  [
						"▁Board",
						-3.0
					  ],
					  [
						"▁Human",
						-3.0
					  ],
					  [
						"▁promotion",
						-3.0
					  ],
					  [
						"UE",
						-3.0
					  ],
					  [
						"▁pourrait",
						-3.0
					  ],
					  [
						"▁coordination",
						-3.0
					  ],
					  [
						"▁ex",
						-3.0
					  ],
					  [
						"▁every",
						-3.0
					  ],
					  [
						"\",",
						-3.0
					  ],
					  [
						"▁visant",
						-3.0
					  ],
					  [
						"était",
						-3.0
					  ],
					  [
						"▁issue",
						-3.0
					  ],
					  [
						"▁provisions",
						-3.0
					  ],
					  [
						"▁impact",
						-3.0
					  ],
					  [
						"at",
						-3.0
					  ],
					  [
						"▁contact",
						-3.0
					  ],
					  [
						"▁heures",
						-3.0
					  ],
					  [
						"v",
						-3.0
					  ],
					  [
						"▁quality",
						-3.0
					  ],
					  [
						"▁outre",
						-3.0
					  ],
					  [
						"°",
						-3.0
					  ],
					  [
						"▁29",
						-3.0
					  ],
					  [
						"▁traitement",
						-3.0
					  ],
					  [
						"▁six",
						-3.0
					  ],
					  [
						"▁July",
						-3.0
					  ],
					  [
						"▁Dieu",
						-3.0
					  ],
					  [
						"▁initiatives",
						-3.0
					  ],
					  [
						"▁staff",
						-3.0
					  ],
					  [
						"▁40",
						-3.0
					  ],
					  [
						"ion",
						-3.0
					  ],
					  [
						"▁i",
						-3.0
					  ],
					  [
						"▁$",
						-3.0
					  ],
					  [
						"▁ni",
						-3.0
					  ],
					  [
						"▁Court",
						-3.0
					  ],
					  [
						"▁authorities",
						-3.0
					  ],
					  [
						"▁better",
						-3.0
					  ],
					  [
						"▁2.",
						-3.0
					  ],
					  [
						"▁whether",
						-3.0
					  ],
					  [
						"homme",
						-3.0
					  ],
					  [
						"▁She",
						-3.0
					  ],
					  [
						"▁U",
						-3.0
					  ],
					  [
						"▁besoins",
						-3.0
					  ],
					  [
						"▁March",
						-3.0
					  ],
					  [
						"▁World",
						-3.0
					  ],
					  [
						"▁2008",
						-3.0
					  ],
					  [
						"aide",
						-3.0
					  ],
					  [
						"4",
						-3.0
					  ],
					  [
						"▁moyen",
						-3.0
					  ],
					  [
						"▁global",
						-3.0
					  ],
					  [
						"▁groups",
						-3.0
					  ],
					  [
						"▁minutes",
						-3.0
					  ],
					  [
						"▁Health",
						-3.0
					  ],
					  [
						"▁final",
						-3.0
					  ],
					  [
						"▁rapports",
						-3.0
					  ],
					  [
						"▁am",
						-3.0
					  ],
					  [
						"▁bon",
						-3.0
					  ],
					  [
						"▁plans",
						-3.0
					  ],
					  [
						"▁projects",
						-3.0
					  ],
					  [
						"Unis",
						-3.0
					  ],
					  [
						"application",
						-3.0
					  ],
					  [
						"▁already",
						-3.0
					  ],
					  [
						"▁current",
						-3.0
					  ],
					  [
						"▁result",
						-3.0
					  ],
					  [
						"▁various",
						-3.0
					  ],
					  [
						"▁attention",
						-3.0
					  ],
					  [
						"▁relations",
						-3.0
					  ],
					  [
						"▁pouvoir",
						-3.0
					  ],
					  [
						"▁addition",
						-3.0
					  ],
					  [
						"art",
						-3.0
					  ],
					  [
						"▁etc",
						-3.0
					  ],
					  [
						"ity",
						-3.0
					  ],
					  [
						"▁comment",
						-3.0
					  ],
					  [
						"▁pris",
						-3.0
					  ],
					  [
						"▁nécessaire",
						-3.0
					  ],
					  [
						"▁2000",
						-3.0
					  ],
					  [
						"▁course",
						-3.0
					  ],
					  [
						"▁valeur",
						-3.0
					  ],
					  [
						"▁care",
						-3.0
					  ],
					  [
						"▁Parliament",
						-3.0
					  ],
					  [
						"▁subject",
						-3.0
					  ],
					  [
						"▁another",
						-3.0
					  ],
					  [
						"▁January",
						-3.0
					  ],
					  [
						"▁program",
						-3.0
					  ],
					  [
						"▁famille",
						-3.0
					  ],
					  [
						"▁construction",
						-3.0
					  ],
					  [
						"▁serait",
						-3.0
					  ],
					  [
						"▁sujet",
						-3.0
					  ],
					  [
						"▁above",
						-3.0
					  ],
					  [
						"el",
						-3.0
					  ],
					  [
						"▁articles",
						-3.0
					  ],
					  [
						"utilisation",
						-3.0
					  ],
					  [
						"▁considered",
						-3.0
					  ],
					  [
						"▁terme",
						-3.0
					  ],
					  [
						"▁mieux",
						-3.0
					  ],
					  [
						"▁certaines",
						-3.0
					  ],
					  [
						"hui",
						-3.0
					  ],
					  [
						"▁participants",
						-3.0
					  ],
					  [
						"▁organismes",
						-3.0
					  ],
					  [
						"ine",
						-3.0
					  ],
					  [
						"▁Plan",
						-3.0
					  ],
					  [
						"▁Information",
						-3.0
					  ],
					  [
						"▁pro",
						-3.0
					  ],
					  [
						"▁Gouvernement",
						-3.0
					  ],
					  [
						"▁product",
						-3.0
					  ],
					  [
						"▁Code",
						-3.0
					  ],
					  [
						"▁juillet",
						-3.0
					  ],
					  [
						"▁four",
						-3.0
					  ],
					  [
						"▁say",
						-3.0
					  ],
					  [
						"és",
						-3.0
					  ],
					  [
						"▁techniques",
						-3.0
					  ],
					  [
						"▁Conférence",
						-3.0
					  ],
					  [
						"▁capacity",
						-3.0
					  ],
					  [
						"▁con",
						-3.0
					  ],
					  [
						"▁pouvez",
						-3.0
					  ],
					  [
						"▁Parlement",
						-3.0
					  ],
					  [
						"co",
						-3.0
					  ],
					  [
						"um",
						-3.0
					  ],
					  [
						"▁financement",
						-3.0
					  ],
					  [
						"▁directive",
						-3.0
					  ],
					  [
						"▁mission",
						-3.0
					  ],
					  [
						"▁developing",
						-3.0
					  ],
					  [
						"▁celle",
						-3.0
					  ],
					  [
						"action",
						-3.0
					  ],
					  [
						"État",
						-3.0
					  ],
					  [
						"▁risk",
						-3.0
					  ],
					  [
						"▁great",
						-3.0
					  ],
					  [
						"▁quand",
						-3.0
					  ],
					  [
						"▁publique",
						-3.0
					  ],
					  [
						"▁membre",
						-3.0
					  ],
					  [
						"▁therefore",
						-3.0
					  ],
					  [
						"▁obligations",
						-3.0
					  ],
					  [
						"▁common",
						-3.0
					  ],
					  [
						"ar",
						-3.0
					  ],
					  [
						"▁systems",
						-3.0
					  ],
					  [
						"▁Social",
						-3.0
					  ],
					  [
						"▁technical",
						-3.0
					  ],
					  [
						"▁jeunes",
						-3.0
					  ],
					  [
						"▁mars",
						-3.0
					  ],
					  [
						"▁October",
						-3.0
					  ],
					  [
						"▁fact",
						-3.0
					  ],
					  [
						"aux",
						-3.0
					  ],
					  [
						"▁using",
						-3.0
					  ],
					  [
						"ia",
						-3.0
					  ],
					  [
						"▁autorités",
						-3.0
					  ],
					  [
						"▁2003",
						-3.0
					  ],
					  [
						"▁mai",
						-3.0
					  ],
					  [
						"▁janvier",
						-3.0
					  ],
					  [
						"▁Minister",
						-3.0
					  ],
					  [
						"▁technique",
						-3.0
					  ],
					  [
						"▁less",
						-3.0
					  ],
					  [
						"▁dis",
						-3.0
					  ],
					  [
						"▁liste",
						-3.0
					  ],
					  [
						"u",
						-3.0
					  ],
					  [
						"▁French",
						-3.0
					  ],
					  [
						"▁fonds",
						-3.0
					  ],
					  [
						"▁When",
						-3.0
					  ],
					  [
						"▁too",
						-3.0
					  ],
					  [
						"▁Al",
						-3.0
					  ],
					  [
						"▁region",
						-3.0
					  ],
					  [
						"▁contribution",
						-3.0
					  ],
					  [
						"▁child",
						-3.0
					  ],
					  [
						"▁donné",
						-3.0
					  ],
					  [
						"▁forme",
						-3.0
					  ],
					  [
						"▁maintenant",
						-3.0
					  ],
					  [
						"▁affaires",
						-3.0
					  ],
					  [
						"▁How",
						-3.0
					  ],
					  [
						"▁proposed",
						-3.0
					  ],
					  [
						"▁Do",
						-3.0
					  ],
					  [
						"▁going",
						-3.0
					  ],
					  [
						"▁relative",
						-3.0
					  ],
					  [
						"▁September",
						-3.0
					  ],
					  [
						"00",
						-3.0
					  ],
					  [
						"▁sais",
						-3.0
					  ],
					  [
						"▁name",
						-3.0
					  ],
					  [
						"▁instruments",
						-3.0
					  ],
					  [
						"▁charge",
						-3.0
					  ],
					  [
						"▁systèmes",
						-3.0
					  ],
					  [
						"▁montant",
						-3.0
					  ],
					  [
						"▁around",
						-3.0
					  ],
					  [
						"▁costs",
						-3.0
					  ],
					  [
						"▁Oui",
						-3.0
					  ],
					  [
						"▁2002",
						-3.0
					  ],
					  [
						"▁Loi",
						-3.0
					  ],
					  [
						"▁rules",
						-3.0
					  ],
					  [
						"▁major",
						-3.0
					  ],
					  [
						"évaluation",
						-3.0
					  ],
					  [
						"▁vertu",
						-3.0
					  ],
					  [
						"▁procédure",
						-3.0
					  ],
					  [
						"▁address",
						-3.0
					  ],
					  [
						"▁nécessaires",
						-3.0
					  ],
					  [
						"w",
						-3.0
					  ],
					  [
						"▁Special",
						-3.0
					  ],
					  [
						"tu",
						-3.0
					  ],
					  [
						"▁English",
						-3.0
					  ],
					  [
						"▁lorsque",
						-3.0
					  ],
					  [
						"▁interest",
						-3.0
					  ],
					  [
						"autre",
						-3.0
					  ],
					  [
						"▁chose",
						-3.0
					  ],
					  [
						"▁able",
						-3.0
					  ],
					  [
						"▁création",
						-3.0
					  ],
					  [
						"▁next",
						-3.0
					  ],
					  [
						"▁reports",
						-3.0
					  ],
					  [
						"▁third",
						-3.0
					  ],
					  [
						"▁Internet",
						-3.0
					  ],
					  [
						"ton",
						-3.0
					  ],
					  [
						"▁jamais",
						-3.0
					  ],
					  [
						"ry",
						-3.0
					  ],
					  [
						"ée",
						-3.0
					  ],
					  [
						"▁field",
						-3.0
					  ],
					  [
						"▁off",
						-3.0
					  ],
					  [
						"▁capital",
						-3.0
					  ],
					  [
						"te",
						-3.0
					  ],
					  [
						"▁levels",
						-3.0
					  ],
					  [
						"▁November",
						-3.0
					  ],
					  [
						"▁réunion",
						-3.0
					  ],
					  [
						"▁policies",
						-3.0
					  ],
					  [
						"▁put",
						-3.0
					  ],
					  [
						"▁problème",
						-3.0
					  ],
					  [
						"▁home",
						-3.0
					  ],
					  [
						"▁terms",
						-3.0
					  ],
					  [
						"▁concerned",
						-3.0
					  ],
					  [
						"▁private",
						-3.0
					  ],
					  [
						"▁aspects",
						-3.0
					  ],
					  [
						"▁forces",
						-3.0
					  ],
					  [
						"▁amount",
						-3.0
					  ],
					  [
						"▁together",
						-3.0
					  ],
					  [
						"▁culture",
						-3.0
					  ],
					  [
						"▁Non",
						-3.0
					  ],
					  [
						"▁types",
						-3.0
					  ],
					  [
						"▁upon",
						-3.0
					  ],
					  [
						"▁several",
						-3.0
					  ],
					  [
						"▁least",
						-3.0
					  ],
					  [
						"▁progress",
						-3.0
					  ],
					  [
						"▁mondiale",
						-3.0
					  ],
					  [
						"▁sommes",
						-3.0
					  ],
					  [
						"emploi",
						-3.0
					  ],
					  [
						"▁structure",
						-3.0
					  ],
					  [
						"▁rate",
						-3.0
					  ],
					  [
						"▁contributions",
						-3.0
					  ],
					  [
						"▁energy",
						-3.0
					  ],
					  [
						"▁received",
						-3.0
					  ],
					  [
						"▁environment",
						-3.0
					  ],
					  [
						"▁septembre",
						-3.0
					  ],
					  [
						"▁dialogue",
						-3.0
					  ],
					  [
						"▁commerce",
						-3.0
					  ],
					  [
						"▁technologies",
						-3.0
					  ],
					  [
						"na",
						-3.0
					  ],
					  [
						"▁Paris",
						-3.0
					  ],
					  [
						"▁My",
						-3.0
					  ],
					  [
						"▁dé",
						-3.0
					  ],
					  [
						"▁got",
						-3.0
					  ],
					  [
						"▁performance",
						-3.0
					  ],
					  [
						"▁dépenses",
						-3.0
					  ],
					  [
						"▁soutien",
						-3.0
					  ],
					  [
						"▁km",
						-3.0
					  ],
					  [
						"▁*",
						-3.0
					  ],
					  [
						"▁framework",
						-3.0
					  ],
					  [
						"▁sociale",
						-3.0
					  ],
					  [
						"▁sources",
						-3.0
					  ],
					  [
						"▁air",
						-3.0
					  ],
					  [
						"▁April",
						-3.0
					  ],
					  [
						"▁moyens",
						-3.0
					  ],
					  [
						"ch",
						-3.0
					  ],
					  [
						"▁Economic",
						-3.0
					  ],
					  [
						"▁devraient",
						-3.0
					  ],
					  [
						"▁St",
						-3.0
					  ],
					  [
						"st",
						-3.0
					  ],
					  [
						"▁value",
						-3.0
					  ],
					  [
						"▁éléments",
						-3.0
					  ],
					  [
						"▁durable",
						-3.0
					  ],
					  [
						"▁version",
						-3.0
					  ],
					  [
						"▁octobre",
						-3.0
					  ],
					  [
						"▁member",
						-3.0
					  ],
					  [
						"▁request",
						-3.0
					  ],
					  [
						"▁novembre",
						-3.0
					  ],
					  [
						"▁f",
						-3.0
					  ],
					  [
						"▁Web",
						-3.0
					  ],
					  [
						"▁solution",
						-3.0
					  ],
					  [
						"▁quatre",
						-3.0
					  ],
					  [
						"▁ville",
						-3.0
					  ],
					  [
						"▁avaient",
						-3.0
					  ],
					  [
						"▁unique",
						-3.0
					  ],
					  [
						"▁agreement",
						-3.0
					  ],
					  [
						"▁food",
						-3.0
					  ],
					  [
						"▁open",
						-3.0
					  ],
					  [
						"▁approach",
						-3.0
					  ],
					  [
						"▁risque",
						-3.0
					  ],
					  [
						"▁experience",
						-3.0
					  ],
					  [
						"ist",
						-3.0
					  ],
					  [
						"▁assurer",
						-3.0
					  ],
					  [
						"Y",
						-3.0
					  ],
					  [
						"▁Comme",
						-3.0
					  ],
					  [
						"ir",
						-3.0
					  ],
					  [
						"▁source",
						-3.0
					  ],
					  [
						"▁sein",
						-3.0
					  ],
					  [
						"▁devant",
						-3.0
					  ],
					  [
						"▁provides",
						-3.0
					  ],
					  [
						"▁collaboration",
						-3.0
					  ],
					  [
						"▁little",
						-3.0
					  ],
					  [
						"▁key",
						-3.0
					  ],
					  [
						"▁différents",
						-3.0
					  ],
					  [
						"environnement",
						-3.0
					  ],
					  [
						"▁Assemblée",
						-3.0
					  ],
					  [
						"▁hommes",
						-3.0
					  ],
					  [
						"▁étant",
						-3.0
					  ],
					  [
						"▁developed",
						-3.0
					  ],
					  [
						"▁Saint",
						-3.0
					  ],
					  [
						"après",
						-3.0
					  ],
					  [
						"▁tenu",
						-3.0
					  ],
					  [
						"▁additional",
						-3.0
					  ],
					  [
						"▁cost",
						-3.0
					  ],
					  [
						"▁experts",
						-3.0
					  ],
					  [
						"▁environmental",
						-3.0
					  ],
					  [
						"▁2001",
						-3.0
					  ],
					  [
						"▁60",
						-3.0
					  ],
					  [
						"▁économiques",
						-3.0
					  ],
					  [
						"▁particularly",
						-3.0
					  ],
					  [
						"▁lutte",
						-3.0
					  ],
					  [
						"ance",
						-3.0
					  ],
					  [
						"▁•",
						-3.0
					  ],
					  [
						"▁Qu",
						-3.0
					  ],
					  [
						"▁Co",
						-3.0
					  ],
					  [
						"▁aide",
						-3.0
					  ],
					  [
						"▁3.",
						-3.0
					  ],
					  [
						"▁direction",
						-3.0
					  ],
					  [
						"▁Organisation",
						-3.0
					  ],
					  [
						"▁spécial",
						-3.0
					  ],
					  [
						"▁zone",
						-3.0
					  ],
					  [
						"▁pratiques",
						-3.0
					  ],
					  [
						"▁THE",
						-3.0
					  ],
					  [
						"▁Ne",
						-3.0
					  ],
					  [
						"▁Tribunal",
						-3.0
					  ],
					  [
						"▁power",
						-3.0
					  ],
					  [
						"▁months",
						-3.0
					  ],
					  [
						"▁nombreux",
						-3.0
					  ],
					  [
						"▁rien",
						-3.0
					  ],
					  [
						"▁included",
						-3.0
					  ],
					  [
						"▁Africa",
						-3.0
					  ],
					  [
						"▁industry",
						-3.0
					  ],
					  [
						"elles",
						-3.0
					  ],
					  [
						"▁internationales",
						-3.0
					  ],
					  [
						"▁February",
						-3.0
					  ],
					  [
						"▁might",
						-3.0
					  ],
					  [
						"▁normes",
						-3.0
					  ],
					  [
						"▁society",
						-3.0
					  ],
					  [
						"▁anti",
						-3.0
					  ],
					  [
						"▁recommandations",
						-3.0
					  ],
					  [
						"▁ensemble",
						-3.0
					  ],
					  [
						"▁donner",
						-3.0
					  ],
					  [
						"▁Cour",
						-3.0
					  ],
					  [
						"▁become",
						-3.0
					  ],
					  [
						"▁celles",
						-3.0
					  ],
					  [
						"ul",
						-3.0
					  ],
					  [
						"▁deuxième",
						-3.0
					  ],
					  [
						"▁domaines",
						-3.0
					  ],
					  [
						"▁auprès",
						-3.0
					  ],
					  [
						"ex",
						-3.0
					  ],
					  [
						"▁Directive",
						-3.0
					  ],
					  [
						"▁renforcer",
						-3.0
					  ],
					  [
						"▁few",
						-3.0
					  ],
					  [
						"▁due",
						-3.0
					  ],
					  [
						"▁list",
						-3.0
					  ],
					  [
						"▁concerning",
						-3.0
					  ],
					  [
						"▁opérations",
						-3.0
					  ],
					  [
						"▁souvent",
						-3.0
					  ],
					  [
						"▁direct",
						-3.0
					  ],
					  [
						"▁men",
						-3.0
					  ],
					  [
						"6",
						-3.0
					  ],
					  [
						"▁avis",
						-3.0
					  ],
					  [
						"▁veux",
						-3.0
					  ],
					  [
						"▁company",
						-3.0
					  ],
					  [
						"▁dernier",
						-3.0
					  ],
					  [
						"▁permet",
						-3.0
					  ],
					  [
						"▁r",
						-3.0
					  ],
					  [
						"▁2010",
						-3.0
					  ],
					  [
						"▁régions",
						-3.0
					  ],
					  [
						"▁legislation",
						-3.0
					  ],
					  [
						"▁civil",
						-3.0
					  ],
					  [
						"▁parce",
						-3.0
					  ],
					  [
						"▁2,",
						-3.0
					  ],
					  [
						"▁study",
						-3.0
					  ],
					  [
						"▁quelque",
						-3.0
					  ],
					  [
						"▁Department",
						-3.0
					  ],
					  [
						"▁égard",
						-3.0
					  ],
					  [
						"▁fournir",
						-3.0
					  ],
					  [
						"▁five",
						-3.0
					  ],
					  [
						"▁individual",
						-3.0
					  ],
					  [
						"▁bonne",
						-3.0
					  ],
					  [
						"▁font",
						-3.0
					  ],
					  [
						"▁light",
						-3.0
					  ],
					  [
						"▁maison",
						-3.0
					  ],
					  [
						"▁oeuvre",
						-3.0
					  ],
					  [
						"▁until",
						-3.0
					  ],
					  [
						"▁examen",
						-3.0
					  ],
					  [
						"▁clients",
						-3.0
					  ],
					  [
						"▁avril",
						-3.0
					  ],
					  [
						"con",
						-3.0
					  ],
					  [
						"▁always",
						-3.0
					  ],
					  [
						"▁vu",
						-3.0
					  ],
					  [
						"▁real",
						-3.0
					  ],
					  [
						"par",
						-3.0
					  ],
					  [
						"▁février",
						-3.0
					  ],
					  [
						"▁Communauté",
						-3.0
					  ],
					  [
						"▁fins",
						-3.0
					  ],
					  [
						"os",
						-3.0
					  ],
					  [
						"and",
						-3.0
					  ],
					  [
						"▁peace",
						-3.0
					  ],
					  [
						"▁having",
						-3.0
					  ],
					  [
						"▁One",
						-3.0
					  ],
					  [
						"▁grâce",
						-3.0
					  ],
					  [
						"▁problems",
						-3.0
					  ],
					  [
						"▁recommendations",
						-3.0
					  ],
					  [
						"▁juste",
						-3.0
					  ],
					  [
						"▁règles",
						-3.0
					  ],
					  [
						"▁distribution",
						-3.0
					  ],
					  [
						"▁croissance",
						-3.0
					  ],
					  [
						"▁employment",
						-3.0
					  ],
					  [
						"▁Oh",
						-3.0
					  ],
					  [
						"▁look",
						-3.0
					  ],
					  [
						"▁vigueur",
						-3.0
					  ],
					  [
						"▁quoi",
						-3.0
					  ],
					  [
						"▁times",
						-3.0
					  ],
					  [
						"▁growth",
						-3.0
					  ],
					  [
						"▁standards",
						-3.0
					  ],
					  [
						"▁eux",
						-3.0
					  ],
					  [
						"▁called",
						-3.0
					  ],
					  [
						"▁met",
						-3.0
					  ],
					  [
						"▁améliorer",
						-3.0
					  ],
					  [
						"▁again",
						-3.0
					  ],
					  [
						"▁2009",
						-3.0
					  ],
					  [
						"▁applicable",
						-3.0
					  ],
					  [
						"▁frais",
						-3.0
					  ],
					  [
						"▁sens",
						-3.0
					  ],
					  [
						"▁test",
						-3.0
					  ],
					  [
						"▁décisions",
						-3.0
					  ],
					  [
						"▁body",
						-3.0
					  ],
					  [
						"▁X",
						-3.0
					  ],
					  [
						"▁safety",
						-3.0
					  ],
					  [
						"▁today",
						-3.0
					  ],
					  [
						"▁nationales",
						-3.0
					  ],
					  [
						"▁meet",
						-3.0
					  ],
					  [
						"▁suivi",
						-3.0
					  ],
					  [
						"▁+",
						-3.0
					  ],
					  [
						"▁administration",
						-3.0
					  ],
					  [
						"▁accès",
						-3.0
					  ],
					  [
						"▁sites",
						-3.0
					  ],
					  [
						"▁communauté",
						-3.0
					  ],
					  [
						"▁effets",
						-3.0
					  ],
					  [
						"▁zones",
						-3.0
					  ],
					  [
						"ter",
						-3.0
					  ],
					  [
						"▁condition",
						-3.0
					  ],
					  [
						"Ã",
						-3.0
					  ],
					  [
						"▁êtes",
						-3.0
					  ],
					  [
						"▁improve",
						-3.0
					  ],
					  [
						"▁line",
						-3.0
					  ],
					  [
						"▁tel",
						-3.0
					  ],
					  [
						".1",
						-3.0
					  ],
					  [
						"▁Home",
						-3.0
					  ],
					  [
						"▁Your",
						-3.0
					  ],
					  [
						"▁agenda",
						-3.0
					  ],
					  [
						"▁aujourd",
						-3.0
					  ],
					  [
						"▁taking",
						-3.0
					  ],
					  [
						"ad",
						-3.0
					  ],
					  [
						"ro",
						-3.0
					  ],
					  [
						"ensemble",
						-3.0
					  ],
					  [
						"▁Well",
						-3.0
					  ],
					  [
						"▁treatment",
						-3.0
					  ],
					  [
						"▁Mission",
						-3.0
					  ],
					  [
						"▁prises",
						-3.0
					  ],
					  [
						"▁cinq",
						-3.0
					  ],
					  [
						"▁haut",
						-3.0
					  ],
					  [
						"▁Or",
						-3.0
					  ],
					  [
						"▁proposition",
						-3.0
					  ],
					  [
						"▁Contact",
						-3.0
					  ],
					  [
						"X",
						-3.0
					  ],
					  [
						"▁young",
						-3.0
					  ],
					  [
						"ner",
						-3.0
					  ],
					  [
						"AC",
						-3.0
					  ],
					  [
						"▁increased",
						-3.0
					  ],
					  [
						"am",
						-3.0
					  ],
					  [
						"▁Q",
						-3.0
					  ],
					  [
						"▁file",
						-3.0
					  ],
					  [
						"▁Report",
						-3.0
					  ],
					  [
						"▁Public",
						-3.0
					  ],
					  [
						"▁never",
						-3.0
					  ],
					  [
						"▁2012",
						-3.0
					  ],
					  [
						"▁vote",
						-3.0
					  ],
					  [
						"Europe",
						-3.0
					  ],
					  [
						"▁minimum",
						-3.0
					  ],
					  [
						"▁age",
						-3.0
					  ],
					  [
						"▁however",
						-3.0
					  ],
					  [
						"▁post",
						-3.0
					  ],
					  [
						"ac",
						-3.0
					  ],
					  [
						"▁représentants",
						-3.0
					  ],
					  [
						"▁court",
						-3.0
					  ],
					  [
						"▁content",
						-3.0
					  ],
					  [
						"▁aucune",
						-3.0
					  ],
					  [
						"▁really",
						-3.0
					  ],
					  [
						"▁consultations",
						-3.0
					  ],
					  [
						"ate",
						-3.0
					  ],
					  [
						"▁submitted",
						-3.0
					  ],
					  [
						"▁state",
						-3.0
					  ],
					  [
						"année",
						-3.0
					  ],
					  [
						"▁code",
						-3.0
					  ],
					  [
						"me",
						-3.0
					  ],
					  [
						"▁More",
						-3.0
					  ],
					  [
						"▁existing",
						-3.0
					  ],
					  [
						"▁déclaration",
						-3.0
					  ],
					  [
						"▁price",
						-3.0
					  ],
					  [
						"▁Z",
						-3.0
					  ],
					  [
						"▁centres",
						-3.0
					  ],
					  [
						"▁capacité",
						-3.0
					  ],
					  [
						"▁changes",
						-3.0
					  ],
					  [
						"▁parents",
						-3.0
					  ],
					  [
						"▁texte",
						-3.0
					  ],
					  [
						"▁aider",
						-3.0
					  ],
					  [
						"▁tels",
						-3.0
					  ],
					  [
						"▁knowledge",
						-3.0
					  ],
					  [
						"▁equipment",
						-3.0
					  ],
					  [
						"▁technology",
						-3.0
					  ],
					  [
						"▁différentes",
						-3.0
					  ],
					  [
						"▁progrès",
						-3.0
					  ],
					  [
						"▁room",
						-3.0
					  ],
					  [
						"▁surveillance",
						-3.0
					  ],
					  [
						"▁table",
						-3.0
					  ],
					  [
						"▁took",
						-3.0
					  ],
					  [
						"▁active",
						-3.0
					  ],
					  [
						"voir",
						-3.0
					  ],
					  [
						"▁près",
						-3.0
					  ],
					  [
						"*",
						-3.0
					  ],
					  [
						"▁procédures",
						-3.0
					  ],
					  [
						"▁adoption",
						-3.0
					  ],
					  [
						"▁aucun",
						-3.0
					  ],
					  [
						"▁land",
						-3.0
					  ],
					  [
						"▁assessment",
						-3.0
					  ],
					  [
						"▁far",
						-3.0
					  ],
					  [
						"▁First",
						-3.0
					  ],
					  [
						"▁significant",
						-3.0
					  ],
					  [
						"5",
						-3.0
					  ],
					  [
						"▁school",
						-3.0
					  ],
					  [
						"▁problem",
						-3.0
					  ],
					  [
						"▁whole",
						-3.0
					  ],
					  [
						"▁gens",
						-3.0
					  ],
					  [
						"▁pu",
						-3.0
					  ],
					  [
						"▁apply",
						-3.0
					  ],
					  [
						"ive",
						-3.0
					  ],
					  [
						"que",
						-3.0
					  ],
					  [
						"▁consultation",
						-3.0
					  ],
					  [
						"ions",
						-3.0
					  ],
					  [
						"▁patients",
						-3.0
					  ],
					  [
						"no",
						-3.0
					  ],
					  [
						"▁effect",
						-3.0
					  ],
					  [
						"▁referred",
						-3.0
					  ],
					  [
						"▁pre",
						-3.0
					  ],
					  [
						"▁OF",
						-3.0
					  ],
					  [
						"▁Comment",
						-3.0
					  ],
					  [
						"▁trouver",
						-3.0
					  ],
					  [
						"▁2015",
						-3.0
					  ],
					  [
						"▁towards",
						-3.0
					  ],
					  [
						"▁done",
						-3.0
					  ],
					  [
						"▁Plus",
						-3.0
					  ],
					  [
						"▁permis",
						-3.0
					  ],
					  [
						"▁August",
						-3.0
					  ],
					  [
						"▁femme",
						-3.0
					  ],
					  [
						"▁solutions",
						-3.0
					  ],
					  [
						"▁responsible",
						-3.0
					  ],
					  [
						"▁risques",
						-3.0
					  ],
					  [
						"▁toi",
						-3.0
					  ],
					  [
						"▁accord",
						-3.0
					  ],
					  [
						"U",
						-3.0
					  ],
					  [
						"▁often",
						-3.0
					  ],
					  [
						"▁design",
						-3.0
					  ],
					  [
						"▁maximum",
						-3.0
					  ],
					  [
						"▁making",
						-3.0
					  ],
					  [
						"▁tax",
						-3.0
					  ],
					  [
						"▁goods",
						-3.0
					  ],
					  [
						"▁context",
						-3.0
					  ],
					  [
						"▁Bien",
						-3.0
					  ],
					  [
						"▁ministre",
						-3.0
					  ],
					  [
						"▁Our",
						-3.0
					  ],
					  [
						"▁why",
						-3.0
					  ],
					  [
						"▁administrative",
						-3.0
					  ],
					  [
						"▁Date",
						-3.0
					  ],
					  [
						"▁hand",
						-3.0
					  ],
					  [
						"▁especially",
						-3.0
					  ],
					  [
						"▁organisation",
						-3.0
					  ],
					  [
						"▁reste",
						-3.0
					  ],
					  [
						"▁Agency",
						-3.0
					  ],
					  [
						"▁Mme",
						-3.0
					  ],
					  [
						"▁Mon",
						-3.0
					  ],
					  [
						"▁Ministère",
						-3.0
					  ],
					  [
						"eur",
						-3.0
					  ],
					  [
						"▁call",
						-3.0
					  ],
					  [
						"accès",
						-3.0
					  ],
					  [
						"▁promote",
						-3.0
					  ],
					  [
						"▁permettre",
						-3.0
					  ],
					  [
						"▁procedures",
						-3.0
					  ],
					  [
						"▁involved",
						-3.0
					  ],
					  [
						"▁nationaux",
						-3.0
					  ],
					  [
						"▁something",
						-3.0
					  ],
					  [
						"▁clear",
						-3.0
					  ],
					  [
						"▁below",
						-3.0
					  ],
					  [
						"▁principal",
						-3.0
					  ],
					  [
						"▁disponibles",
						-3.0
					  ],
					  [
						"▁natural",
						-3.0
					  ],
					  [
						"▁Car",
						-3.0
					  ],
					  [
						"▁operations",
						-3.0
					  ],
					  [
						"▁III",
						-3.0
					  ],
					  [
						"ard",
						-3.0
					  ],
					  [
						"▁plupart",
						-3.0
					  ],
					  [
						"▁cannot",
						-3.0
					  ],
					  [
						"ticulièrement",
						-3.0
					  ],
					  [
						"▁meetings",
						-3.0
					  ],
					  [
						"—",
						-3.0
					  ],
					  [
						"▁Tout",
						-3.0
					  ],
					  [
						"▁peux",
						-3.0
					  ],
					  [
						"▁́",
						-3.0
					  ],
					  [
						"▁régime",
						-3.0
					  ],
					  [
						"▁ton",
						-3.0
					  ],
					  [
						"▁initiative",
						-3.0
					  ],
					  [
						"▁Québec",
						-3.0
					  ],
					  [
						"▁commercial",
						-3.0
					  ],
					  [
						"▁créer",
						-3.0
					  ],
					  [
						"▁prise",
						-3.0
					  ],
					  [
						"▁house",
						-3.0
					  ],
					  [
						"▁simple",
						-3.0
					  ],
					  [
						"▁Working",
						-3.0
					  ],
					  [
						"▁proposal",
						-3.0
					  ],
					  [
						"see",
						-3.0
					  ],
					  [
						"▁trop",
						-3.0
					  ],
					  [
						"):",
						-3.0
					  ],
					  [
						"▁2011",
						-3.0
					  ],
					  [
						"per",
						-3.0
					  ],
					  [
						"▁potential",
						-3.0
					  ],
					  [
						"▁Y",
						-3.0
					  ],
					  [
						"▁coûts",
						-3.0
					  ],
					  [
						"▁property",
						-3.0
					  ],
					  [
						"▁réseau",
						-3.0
					  ],
					  [
						"▁opinion",
						-3.0
					  ],
					  [
						"▁procedure",
						-3.0
					  ],
					  [
						"▁dernière",
						-3.0
					  ],
					  [
						"id",
						-3.0
					  ],
					  [
						"▁mondial",
						-3.0
					  ],
					  [
						"▁aid",
						-3.0
					  ],
					  [
						"▁faveur",
						-3.0
					  ],
					  [
						"▁develop",
						-3.0
					  ],
					  [
						"▁principes",
						-3.0
					  ],
					  [
						"▁stratégie",
						-3.0
					  ],
					  [
						"▁mes",
						-3.0
					  ],
					  [
						"ré",
						-3.0
					  ],
					  [
						"▁2013",
						-3.0
					  ],
					  [
						"▁référence",
						-3.0
					  ],
					  [
						"▁office",
						-3.0
					  ],
					  [
						"▁things",
						-3.0
					  ],
					  [
						"▁mal",
						-3.0
					  ],
					  [
						"land",
						-3.0
					  ],
					  [
						"▁début",
						-3.0
					  ],
					  [
						"▁hours",
						-3.0
					  ],
					  [
						"accord",
						-3.0
					  ],
					  [
						"▁according",
						-3.0
					  ],
					  [
						"▁mandat",
						-3.0
					  ],
					  [
						"▁Ça",
						-3.0
					  ],
					  [
						"▁close",
						-3.0
					  ],
					  [
						"▁communications",
						-3.0
					  ],
					  [
						"▁Other",
						-3.0
					  ],
					  [
						"Assemblée",
						-3.0
					  ],
					  [
						"▁responsabilité",
						-3.0
					  ],
					  [
						"▁organization",
						-3.0
					  ],
					  [
						"out",
						-3.0
					  ],
					  [
						"▁By",
						-3.0
					  ],
					  [
						"▁UN",
						-3.0
					  ],
					  [
						"▁ta",
						-3.0
					  ],
					  [
						"▁range",
						-3.0
					  ],
					  [
						"10",
						-3.0
					  ],
					  [
						"▁matter",
						-3.0
					  ],
					  [
						"▁language",
						-3.0
					  ],
					  [
						"▁sub",
						-3.0
					  ],
					  [
						"▁état",
						-3.0
					  ],
					  [
						"▁city",
						-3.0
					  ],
					  [
						"▁others",
						-3.0
					  ],
					  [
						"▁seul",
						-3.0
					  ],
					  [
						"if",
						-3.0
					  ],
					  [
						"▁ordre",
						-3.0
					  ],
					  [
						"▁Nord",
						-3.0
					  ],
					  [
						"▁South",
						-3.0
					  ],
					  [
						"▁noted",
						-3.0
					  ],
					  [
						"▁publication",
						-3.0
					  ],
					  [
						"▁pratique",
						-3.0
					  ],
					  [
						"▁sociaux",
						-3.0
					  ],
					  [
						"▁relation",
						-3.0
					  ],
					  [
						"▁Treaty",
						-3.0
					  ],
					  [
						"▁Sur",
						-3.0
					  ],
					  [
						"▁Con",
						-3.0
					  ],
					  [
						"▁promouvoir",
						-3.0
					  ],
					  [
						"▁central",
						-3.0
					  ],
					  [
						"ici",
						-3.0
					  ],
					  [
						"▁4.",
						-3.0
					  ],
					  [
						"▁living",
						-3.0
					  ],
					  [
						"▁es",
						-3.0
					  ],
					  [
						"▁past",
						-3.0
					  ],
					  [
						"isation",
						-3.0
					  ],
					  [
						"▁territoire",
						-3.0
					  ],
					  [
						"▁standard",
						-3.0
					  ],
					  [
						"▁pay",
						-3.0
					  ],
					  [
						"ler",
						-3.0
					  ],
					  [
						"▁Règlement",
						-3.0
					  ],
					  [
						"di",
						-3.0
					  ],
					  [
						"▁soins",
						-3.0
					  ],
					  [
						"▁applications",
						-3.0
					  ],
					  [
						"▁Yeah",
						-3.0
					  ],
					  [
						"▁adopté",
						-3.0
					  ],
					  [
						"▁armes",
						-3.0
					  ],
					  [
						"▁low",
						-3.0
					  ],
					  [
						"▁termes",
						-3.0
					  ],
					  [
						"▁1999",
						-3.0
					  ],
					  [
						"▁Dr",
						-3.0
					  ],
					  [
						"ut",
						-3.0
					  ],
					  [
						"▁permanent",
						-3.0
					  ],
					  [
						"▁études",
						-3.0
					  ],
					  [
						"▁double",
						-3.0
					  ],
					  [
						"▁Fund",
						-3.0
					  ],
					  [
						"▁législation",
						-3.0
					  ],
					  [
						"90",
						-3.0
					  ],
					  [
						"▁purpose",
						-3.0
					  ],
					  [
						"▁show",
						-3.0
					  ],
					  [
						"▁Section",
						-3.0
					  ],
					  [
						"▁Action",
						-3.0
					  ],
					  [
						"▁marchés",
						-3.0
					  ],
					  [
						"▁left",
						-3.0
					  ],
					  [
						"▁status",
						-3.0
					  ],
					  [
						"ian",
						-3.0
					  ],
					  [
						"▁funding",
						-3.0
					  ],
					  [
						"▁communautaire",
						-3.0
					  ],
					  [
						"se",
						-3.0
					  ],
					  [
						"▁single",
						-3.0
					  ],
					  [
						"▁Total",
						-3.0
					  ],
					  [
						"▁puis",
						-3.0
					  ],
					  [
						"ement",
						-3.0
					  ],
					  [
						"▁2014",
						-3.0
					  ],
					  [
						"▁Management",
						-3.0
					  ],
					  [
						"▁capacités",
						-3.0
					  ],
					  [
						"▁utiliser",
						-3.0
					  ],
					  [
						"▁actuellement",
						-3.0
					  ],
					  [
						"▁Agreement",
						-3.0
					  ],
					  [
						"▁old",
						-3.0
					  ],
					  [
						"▁directement",
						-3.0
					  ],
					  [
						"im",
						-3.0
					  ],
					  [
						"▁sustainable",
						-3.0
					  ],
					  [
						"▁pourquoi",
						-3.0
					  ],
					  [
						"ier",
						-3.0
					  ],
					  [
						"▁companies",
						-3.0
					  ],
					  [
						"▁Sa",
						-3.0
					  ],
					  [
						"▁Organization",
						-3.0
					  ],
					  [
						"▁consideration",
						-3.0
					  ],
					  [
						"▁discussion",
						-3.0
					  ],
					  [
						"j",
						-3.0
					  ],
					  [
						"▁partenaires",
						-3.0
					  ],
					  [
						"▁rendre",
						-3.0
					  ],
					  [
						"▁Cela",
						-3.0
					  ],
					  [
						"▁Yes",
						-3.0
					  ],
					  [
						"▁phase",
						-3.0
					  ],
					  [
						"▁Add",
						-3.0
					  ],
					  [
						"▁building",
						-3.0
					  ],
					  [
						"▁durée",
						-3.0
					  ],
					  [
						"▁demandé",
						-3.0
					  ],
					  [
						"▁activity",
						-3.0
					  ],
					  [
						"ordre",
						-3.0
					  ],
					  [
						"▁petit",
						-3.0
					  ],
					  [
						"▁suivants",
						-3.0
					  ],
					  [
						"▁disposition",
						-3.0
					  ],
					  [
						"▁obtenir",
						-3.0
					  ],
					  [
						"▁investment",
						-3.0
					  ],
					  [
						".2",
						-3.0
					  ],
					  [
						"▁objectives",
						-3.0
					  ],
					  [
						"▁missions",
						-3.0
					  ],
					  [
						"▁online",
						-3.0
					  ],
					  [
						"▁Fonds",
						-3.0
					  ],
					  [
						"▁away",
						-3.0
					  ],
					  [
						"examen",
						-3.0
					  ],
					  [
						"▁Ontario",
						-3.0
					  ],
					  [
						"▁Affairs",
						-3.0
					  ],
					  [
						"▁propre",
						-3.0
					  ],
					  [
						"▁bodies",
						-3.0
					  ],
					  [
						"▁fully",
						-3.0
					  ],
					  [
						"▁relating",
						-3.0
					  ],
					  [
						"▁niveaux",
						-3.0
					  ],
					  [
						"▁analysis",
						-3.0
					  ],
					  [
						"▁yet",
						-3.0
					  ],
					  [
						"ty",
						-3.0
					  ],
					  [
						"▁authority",
						-3.0
					  ],
					  [
						"▁pré",
						-3.0
					  ],
					  [
						"▁crime",
						-3.0
					  ],
					  [
						"▁provision",
						-3.0
					  ],
					  [
						"▁response",
						-3.0
					  ],
					  [
						"▁réduire",
						-3.0
					  ],
					  [
						"Le",
						-3.0
					  ],
					  [
						"▁benefits",
						-3.0
					  ],
					  [
						"▁90",
						-3.0
					  ],
					  [
						"ique",
						-3.0
					  ],
					  [
						"▁propose",
						-3.0
					  ],
					  [
						"end",
						-3.0
					  ],
					  [
						"▁principe",
						-3.0
					  ],
					  [
						"▁During",
						-3.0
					  ],
					  [
						"▁suivant",
						-3.0
					  ],
					  [
						"▁personal",
						-3.0
					  ],
					  [
						"industrie",
						-3.0
					  ],
					  [
						"▁traité",
						-3.0
					  ],
					  [
						"▁environ",
						-3.0
					  ],
					  [
						"▁regarding",
						-3.0
					  ],
					  [
						"▁Etats",
						-3.0
					  ],
					  [
						"▁lorsqu",
						-3.0
					  ],
					  [
						"▁séance",
						-3.0
					  ],
					  [
						"▁al",
						-3.0
					  ],
					  [
						"▁start",
						-3.0
					  ],
					  [
						"▁porte",
						-3.0
					  ],
					  [
						"▁mean",
						-3.0
					  ],
					  [
						"▁carried",
						-3.0
					  ],
					  [
						"ness",
						-3.0
					  ],
					  [
						"▁Après",
						-3.0
					  ],
					  [
						"▁offre",
						-3.0
					  ],
					  [
						"▁providing",
						-3.0
					  ],
					  [
						"▁monitoring",
						-3.0
					  ],
					  [
						"▁Hotel",
						-3.0
					  ],
					  [
						"▁love",
						-3.0
					  ],
					  [
						"▁évaluation",
						-3.0
					  ],
					  [
						"▁workers",
						-3.0
					  ],
					  [
						"▁Se",
						-3.0
					  ],
					  [
						"▁Air",
						-3.0
					  ],
					  [
						"▁demandes",
						-3.0
					  ],
					  [
						"▁internationaux",
						-3.0
					  ],
					  [
						"▁decisions",
						-3.0
					  ],
					  [
						"▁share",
						-3.0
					  ],
					  [
						"▁réponse",
						-3.0
					  ],
					  [
						"▁Please",
						-3.0
					  ],
					  [
						"▁trouve",
						-3.0
					  ],
					  [
						"▁Division",
						-3.0
					  ],
					  [
						"É",
						-3.0
					  ],
					  [
						"▁team",
						-3.0
					  ],
					  [
						"ais",
						-3.0
					  ],
					  [
						"▁agreed",
						-3.0
					  ],
					  [
						"▁Sud",
						-3.0
					  ],
					  [
						"▁offer",
						-3.0
					  ],
					  [
						"▁side",
						-3.0
					  ],
					  [
						"▁practice",
						-3.0
					  ],
					  [
						"air",
						-3.0
					  ],
					  [
						"▁suit",
						-3.0
					  ],
					  [
						"@",
						-3.0
					  ],
					  [
						"▁parmi",
						-3.0
					  ],
					  [
						"▁responsibility",
						-3.0
					  ],
					  [
						"▁military",
						-3.0
					  ],
					  [
						"In",
						-3.0
					  ],
					  [
						"▁please",
						-3.0
					  ],
					  [
						"▁3,",
						-3.0
					  ],
					  [
						"▁El",
						-3.0
					  ],
					  [
						"20",
						-3.0
					  ],
					  [
						"▁official",
						-3.0
					  ],
					  [
						"▁follow",
						-3.0
					  ],
					  [
						"▁radio",
						-3.0
					  ],
					  [
						"▁publics",
						-3.0
					  ],
					  [
						"▁annual",
						-3.0
					  ],
					  [
						"▁believe",
						-3.0
					  ],
					  [
						"line",
						-3.0
					  ],
					  [
						"▁recent",
						-3.0
					  ],
					  [
						"aire",
						-3.0
					  ],
					  [
						"▁35",
						-3.0
					  ],
					  [
						"▁effects",
						-3.0
					  ],
					  [
						"▁item",
						-3.0
					  ],
					  [
						"▁Rapporteur",
						-3.0
					  ],
					  [
						"▁African",
						-3.0
					  ],
					  [
						"▁reference",
						-3.0
					  ],
					  [
						"▁bureau",
						-3.0
					  ],
					  [
						"▁août",
						-3.0
					  ],
					  [
						"▁either",
						-3.0
					  ],
					  [
						"▁Table",
						-3.0
					  ],
					  [
						"▁Where",
						-3.0
					  ],
					  [
						"▁material",
						-3.0
					  ],
					  [
						"▁communities",
						-3.0
					  ],
					  [
						"▁propos",
						-3.0
					  ],
					  [
						"▁early",
						-3.0
					  ],
					  [
						"ary",
						-3.0
					  ],
					  [
						"▁vraiment",
						-3.0
					  ],
					  [
						"▁représentant",
						-3.0
					  ],
					  [
						"ées",
						-3.0
					  ],
					  [
						"▁conclusions",
						-3.0
					  ],
					  [
						"▁commun",
						-3.0
					  ],
					  [
						"40",
						-3.0
					  ],
					  [
						"Z",
						-3.0
					  ],
					  [
						"▁consider",
						-3.0
					  ],
					  [
						"▁nécessité",
						-3.0
					  ],
					  [
						"▁seule",
						-3.0
					  ],
					  [
						"▁representatives",
						-3.0
					  ],
					  [
						"▁ailleurs",
						-3.0
					  ],
					  [
						"agit",
						-3.0
					  ],
					  [
						"▁Voir",
						-3.0
					  ],
					  [
						"AL",
						-3.0
					  ],
					  [
						"▁‘",
						-3.0
					  ],
					  [
						"▁réduction",
						-3.0
					  ],
					  [
						"▁transition",
						-3.0
					  ],
					  [
						"▁gouvernements",
						-3.0
					  ],
					  [
						"▁night",
						-3.0
					  ],
					  [
						"▁financière",
						-3.0
					  ],
					  [
						"▁nombreuses",
						-3.0
					  ],
					  [
						"op",
						-3.0
					  ],
					  [
						"▁cultural",
						-3.0
					  ],
					  [
						"▁tell",
						-3.0
					  ],
					  [
						"▁civile",
						-3.0
					  ],
					  [
						"▁mort",
						-3.0
					  ],
					  [
						"▁text",
						-3.0
					  ],
					  [
						"▁(1)",
						-3.0
					  ],
					  [
						"be",
						-3.0
					  ],
					  [
						"▁lequel",
						-3.0
					  ],
					  [
						"▁agencies",
						-3.0
					  ],
					  [
						"▁foreign",
						-3.0
					  ],
					  [
						"▁strategy",
						-3.0
					  ],
					  [
						"▁situations",
						-3.0
					  ],
					  [
						"▁changements",
						-3.0
					  ],
					  [
						"▁money",
						-3.0
					  ],
					  [
						"▁présenté",
						-3.0
					  ],
					  [
						"mail",
						-3.0
					  ],
					  [
						"▁prévention",
						-3.0
					  ],
					  [
						"term",
						-3.0
					  ],
					  [
						"▁event",
						-3.0
					  ],
					  [
						"▁environnement",
						-3.0
					  ],
					  [
						"▁needed",
						-3.0
					  ],
					  [
						"▁secteurs",
						-3.0
					  ],
					  [
						"administration",
						-3.0
					  ],
					  [
						"▁let",
						-3.0
					  ],
					  [
						"▁x",
						-3.0
					  ],
					  [
						"▁présenter",
						-3.0
					  ],
					  [
						"▁York",
						-3.0
					  ],
					  [
						"▁choix",
						-3.0
					  ],
					  [
						"▁conférence",
						-3.0
					  ],
					  [
						"▁presented",
						-3.0
					  ],
					  [
						"▁High",
						-3.0
					  ],
					  [
						"▁commune",
						-3.0
					  ],
					  [
						"▁travailleurs",
						-3.0
					  ],
					  [
						"▁enfant",
						-3.0
					  ],
					  [
						"▁Christ",
						-3.0
					  ],
					  [
						"▁Research",
						-3.0
					  ],
					  [
						"▁1998",
						-3.0
					  ],
					  [
						"▁45",
						-3.0
					  ],
					  [
						"▁déterminer",
						-3.0
					  ],
					  [
						"▁appui",
						-3.0
					  ],
					  [
						"▁greater",
						-3.0
					  ],
					  [
						"▁efficace",
						-3.0
					  ],
					  [
						"▁contexte",
						-3.0
					  ],
					  [
						"▁practices",
						-3.0
					  ],
					  [
						"▁play",
						-3.0
					  ],
					  [
						"▁Annex",
						-3.0
					  ],
					  [
						"▁doing",
						-3.0
					  ],
					  [
						"▁président",
						-3.0
					  ],
					  [
						"▁passé",
						-3.0
					  ],
					  [
						"▁substances",
						-3.0
					  ],
					  [
						"je",
						-3.0
					  ],
					  [
						"▁juridique",
						-3.0
					  ],
					  [
						"▁known",
						-3.0
					  ],
					  [
						"▁events",
						-3.0
					  ],
					  [
						"▁Law",
						-3.0
					  ],
					  [
						"▁2018",
						-3.0
					  ],
					  [
						"▁Description",
						-3.0
					  ],
					  [
						"rs",
						-3.0
					  ],
					  [
						"▁telles",
						-3.0
					  ],
					  [
						"▁langue",
						-3.0
					  ],
					  [
						"▁evidence",
						-3.0
					  ],
					  [
						"▁top",
						-3.0
					  ],
					  [
						"based",
						-3.0
					  ],
					  [
						"▁observations",
						-3.0
					  ],
					  [
						"▁positive",
						-3.0
					  ],
					  [
						"EN",
						-3.0
					  ],
					  [
						"▁located",
						-3.0
					  ],
					  [
						"moi",
						-3.0
					  ],
					  [
						"▁US",
						-3.0
					  ],
					  [
						"▁Afrique",
						-3.0
					  ],
					  [
						"▁comité",
						-3.0
					  ],
					  [
						"▁Forum",
						-3.0
					  ],
					  [
						"▁income",
						-3.0
					  ],
					  [
						"▁Why",
						-3.0
					  ],
					  [
						"▁reported",
						-3.0
					  ],
					  [
						"énergie",
						-3.0
					  ],
					  [
						"ure",
						-3.0
					  ],
					  [
						"avoir",
						-3.0
					  ],
					  [
						"org",
						-3.0
					  ],
					  [
						".3",
						-3.0
					  ],
					  [
						"▁salle",
						-3.0
					  ],
					  [
						"▁dernières",
						-3.0
					  ],
					  [
						"ta",
						-3.0
					  ],
					  [
						"▁short",
						-3.0
					  ],
					  [
						"▁After",
						-3.0
					  ],
					  [
						"▁telle",
						-3.0
					  ],
					  [
						"▁Bank",
						-3.0
					  ],
					  [
						"▁gonna",
						-3.0
					  ],
					  [
						"▁principles",
						-3.0
					  ],
					  [
						"▁É",
						-3.0
					  ],
					  [
						"▁allow",
						-3.0
					  ],
					  [
						"▁higher",
						-3.0
					  ],
					  [
						"▁Pro",
						-3.0
					  ],
					  [
						"▁federal",
						-3.0
					  ],
					  [
						"▁possibilité",
						-3.0
					  ],
					  [
						"objet",
						-3.0
					  ],
					  [
						"▁Pourquoi",
						-3.0
					  ],
					  [
						"▁Rapport",
						-3.0
					  ],
					  [
						"▁Justice",
						-3.0
					  ],
					  [
						"▁».",
						-3.0
					  ],
					  [
						"▁exigences",
						-3.0
					  ],
					  [
						"▁vais",
						-3.0
					  ],
					  [
						".4",
						-3.0
					  ],
					  [
						"▁décidé",
						-3.0
					  ],
					  [
						"▁Note",
						-3.0
					  ],
					  [
						"▁80",
						-3.0
					  ],
					  [
						"▁fonctions",
						-3.0
					  ],
					  [
						"▁offers",
						-3.0
					  ],
					  [
						"▁Women",
						-3.0
					  ],
					  [
						"▁province",
						-3.0
					  ],
					  [
						"▁existe",
						-3.0
					  ],
					  [
						"▁populations",
						-3.0
					  ],
					  [
						"ies",
						-3.0
					  ],
					  [
						"▁utilisé",
						-3.0
					  ],
					  [
						"ma",
						-3.0
					  ],
					  [
						"Q",
						-3.0
					  ],
					  [
						"son",
						-3.0
					  ],
					  [
						"▁répondre",
						-3.0
					  ],
					  [
						"▁Constitution",
						-3.0
					  ],
					  [
						"▁former",
						-3.0
					  ],
					  [
						"▁average",
						-3.0
					  ],
					  [
						"▁directly",
						-3.0
					  ],
					  [
						"▁sorte",
						-3.0
					  ],
					  [
						"▁réunions",
						-3.0
					  ],
					  [
						"▁1996",
						-3.0
					  ],
					  [
						"▁victimes",
						-3.0
					  ],
					  [
						"▁Toutefois",
						-3.0
					  ],
					  [
						"▁partners",
						-3.0
					  ],
					  [
						"ism",
						-3.0
					  ],
					  [
						",\"",
						-3.0
					  ],
					  [
						"▁Can",
						-3.0
					  ],
					  [
						"▁complete",
						-3.0
					  ],
					  [
						"▁came",
						-3.0
					  ],
					  [
						"▁Du",
						-3.0
					  ],
					  [
						"▁poste",
						-3.0
					  ],
					  [
						"▁keep",
						-3.0
					  ],
					  [
						"▁expected",
						-3.0
					  ],
					  [
						"éducation",
						-3.0
					  ],
					  [
						"▁200",
						-3.0
					  ],
					  [
						"▁)",
						-3.0
					  ],
					  [
						"▁dès",
						-3.0
					  ],
					  [
						"▁requested",
						-3.0
					  ],
					  [
						"▁Don",
						-3.0
					  ],
					  [
						"30",
						-3.0
					  ],
					  [
						"▁pourraient",
						-3.0
					  ],
					  [
						"▁currently",
						-3.0
					  ],
					  [
						"▁voie",
						-3.0
					  ],
					  [
						"▁didn",
						-3.0
					  ],
					  [
						"▁divers",
						-3.0
					  ],
					  [
						"▁mm",
						-3.0
					  ],
					  [
						"▁LA",
						-3.0
					  ],
					  [
						"▁Some",
						-3.0
					  ],
					  [
						"▁America",
						-3.0
					  ],
					  [
						"▁representative",
						-3.0
					  ],
					  [
						"▁decided",
						-3.0
					  ],
					  [
						"▁location",
						-3.0
					  ],
					  [
						"▁once",
						-3.0
					  ],
					  [
						"▁série",
						-3.0
					  ],
					  [
						"▁sent",
						-3.0
					  ],
					  [
						"▁statement",
						-3.0
					  ],
					  [
						".5",
						-3.0
					  ],
					  [
						"▁route",
						-3.0
					  ],
					  [
						"▁recours",
						-3.0
					  ],
					  [
						"▁importante",
						-3.0
					  ],
					  [
						"▁contenu",
						-3.0
					  ],
					  [
						"▁funds",
						-3.0
					  ],
					  [
						"▁message",
						-3.0
					  ],
					  [
						"▁media",
						-3.0
					  ],
					  [
						"▁later",
						-3.0
					  ],
					  [
						"▁mer",
						-3.0
					  ],
					  [
						"▁biens",
						-3.0
					  ],
					  [
						"▁space",
						-3.0
					  ],
					  [
						"intérêt",
						-3.0
					  ],
					  [
						"▁licence",
						-3.0
					  ],
					  [
						"▁Not",
						-3.0
					  ],
					  [
						"▁reçu",
						-3.0
					  ],
					  [
						"▁gender",
						-3.0
					  ],
					  [
						"entreprise",
						-3.0
					  ],
					  [
						"qui",
						-3.0
					  ],
					  [
						"▁limited",
						-3.0
					  ],
					  [
						"▁tenir",
						-3.0
					  ],
					  [
						"▁suivantes",
						-3.0
					  ],
					  [
						"50",
						-3.0
					  ],
					  [
						"▁5.",
						-3.0
					  ],
					  [
						"▁donne",
						-3.0
					  ],
					  [
						"▁liberté",
						-3.0
					  ],
					  [
						"▁surface",
						-3.0
					  ],
					  [
						"annexe",
						-3.0
					  ],
					  [
						"▁live",
						-3.0
					  ],
					  [
						"▁nuclear",
						-3.0
					  ],
					  [
						"do",
						-3.0
					  ],
					  [
						"▁convient",
						-3.0
					  ],
					  [
						"▁1997",
						-3.0
					  ],
					  [
						"▁Selon",
						-3.0
					  ],
					  [
						"▁receive",
						-3.0
					  ],
					  [
						"ence",
						-3.0
					  ],
					  [
						"▁domestic",
						-3.0
					  ],
					  [
						"▁labour",
						-3.0
					  ],
					  [
						"▁similar",
						-3.0
					  ],
					  [
						"▁notes",
						-3.0
					  ],
					  [
						"▁renforcement",
						-3.0
					  ],
					  [
						"▁aurait",
						-3.0
					  ],
					  [
						"La",
						-3.0
					  ],
					  [
						"▁opportunity",
						-3.0
					  ],
					  [
						"exercice",
						-3.0
					  ],
					  [
						"▁(2)",
						-3.0
					  ],
					  [
						"▁tard",
						-3.0
					  ],
					  [
						"▁leave",
						-3.0
					  ],
					  [
						"▁maintien",
						-3.0
					  ],
					  [
						"▁agents",
						-3.0
					  ],
					  [
						"60",
						-3.0
					  ],
					  [
						"▁concern",
						-3.0
					  ],
					  [
						"▁benefit",
						-3.0
					  ],
					  [
						"▁davantage",
						-3.0
					  ],
					  [
						"du",
						-3.0
					  ],
					  [
						"▁modèle",
						-3.0
					  ],
					  [
						"▁collection",
						-3.0
					  ],
					  [
						"▁across",
						-3.0
					  ],
					  [
						"▁approved",
						-3.0
					  ],
					  [
						"▁portant",
						-3.0
					  ],
					  [
						"▁From",
						-3.0
					  ],
					  [
						"▁bring",
						-3.0
					  ],
					  [
						"▁canadienne",
						-3.0
					  ],
					  [
						"▁rates",
						-3.0
					  ],
					  [
						"▁autochtones",
						-3.0
					  ],
					  [
						"▁fonctionnement",
						-3.0
					  ],
					  [
						"▁week",
						-3.0
					  ],
					  [
						"▁lot",
						-3.0
					  ],
					  [
						"▁principaux",
						-3.0
					  ],
					  [
						"▁kind",
						-3.0
					  ],
					  [
						"▁programs",
						-3.0
					  ],
					  [
						"iv",
						-3.0
					  ],
					  [
						"▁Que",
						-3.0
					  ],
					  [
						"▁mode",
						-3.0
					  ],
					  [
						"▁designed",
						-3.0
					  ],
					  [
						"▁Mar",
						-3.0
					  ],
					  [
						"▁term",
						-3.0
					  ],
					  [
						"té",
						-3.0
					  ],
					  [
						"▁create",
						-3.0
					  ],
					  [
						"7",
						-3.0
					  ],
					  [
						"▁passe",
						-3.0
					  ],
					  [
						"ins",
						-3.0
					  ],
					  [
						"▁purposes",
						-3.0
					  ],
					  [
						"ak",
						-3.0
					  ],
					  [
						"▁read",
						-3.0
					  ],
					  [
						"▁network",
						-3.0
					  ],
					  [
						"▁méthodes",
						-3.0
					  ],
					  [
						"▁canadien",
						-3.0
					  ],
					  [
						"▁70",
						-3.0
					  ],
					  [
						"▁délégation",
						-3.0
					  ],
					  [
						"19",
						-3.0
					  ],
					  [
						"▁previous",
						-3.0
					  ],
					  [
						"▁di",
						-3.0
					  ],
					  [
						"▁continued",
						-3.0
					  ],
					  [
						"▁Me",
						-3.0
					  ],
					  [
						"use",
						-3.0
					  ],
					  [
						"▁website",
						-3.0
					  ],
					  [
						"▁establishment",
						-3.0
					  ],
					  [
						"15",
						-3.0
					  ],
					  [
						"▁options",
						-3.0
					  ],
					  [
						"▁includes",
						-3.0
					  ],
					  [
						"▁Go",
						-3.0
					  ],
					  [
						"▁regions",
						-3.0
					  ],
					  [
						"▁EN",
						-3.0
					  ],
					  [
						"▁EUR",
						-3.0
					  ],
					  [
						"▁Director",
						-3.0
					  ],
					  [
						"▁Ma",
						-3.0
					  ],
					  [
						"▁DES",
						-3.0
					  ],
					  [
						"▁focus",
						-3.0
					  ],
					  [
						"▁self",
						-3.0
					  ],
					  [
						"Organisation",
						-3.0
					  ],
					  [
						"ous",
						-3.0
					  ],
					  [
						"▁return",
						-3.0
					  ],
					  [
						"▁tiers",
						-3.0
					  ],
					  [
						"entrée",
						-3.0
					  ],
					  [
						"▁indiqué",
						-3.0
					  ],
					  [
						"▁joint",
						-3.0
					  ],
					  [
						"▁Pas",
						-3.0
					  ],
					  [
						"nous",
						-3.0
					  ],
					  [
						"▁reporting",
						-3.0
					  ],
					  [
						"▁guerre",
						-3.0
					  ],
					  [
						"▁milieu",
						-3.0
					  ],
					  [
						"▁choses",
						-3.0
					  ],
					  [
						"▁basic",
						-3.0
					  ],
					  [
						"▁photo",
						-3.0
					  ],
					  [
						"lo",
						-3.0
					  ],
					  [
						"▁professionnelle",
						-3.0
					  ],
					  [
						"▁participer",
						-3.0
					  ],
					  [
						"▁permettant",
						-3.0
					  ],
					  [
						"ling",
						-3.0
					  ],
					  [
						"▁heart",
						-3.0
					  ],
					  [
						"▁commission",
						-3.0
					  ],
					  [
						"▁500",
						-3.0
					  ],
					  [
						"▁privé",
						-3.0
					  ],
					  [
						"▁description",
						-3.0
					  ],
					  [
						"▁supplémentaires",
						-3.0
					  ],
					  [
						"▁Tous",
						-3.0
					  ],
					  [
						"ise",
						-3.0
					  ],
					  [
						"▁essential",
						-3.0
					  ],
					  [
						"▁thing",
						-3.0
					  ],
					  [
						"▁thus",
						-3.0
					  ],
					  [
						"▁job",
						-3.0
					  ],
					  [
						"go",
						-3.0
					  ],
					  [
						"▁chef",
						-3.0
					  ],
					  [
						"▁evaluation",
						-3.0
					  ],
					  [
						"▁financières",
						-3.0
					  ],
					  [
						"▁»,",
						-3.0
					  ],
					  [
						"▁financiers",
						-3.0
					  ],
					  [
						"▁Now",
						-3.0
					  ],
					  [
						"▁Son",
						-3.0
					  ],
					  [
						"▁analyse",
						-3.0
					  ],
					  [
						"▁utilisation",
						-3.0
					  ],
					  [
						"▁durant",
						-3.0
					  ],
					  [
						"▁aura",
						-3.0
					  ],
					  [
						"▁grandes",
						-3.0
					  ],
					  [
						"▁propres",
						-3.0
					  ],
					  [
						"▁v",
						-3.0
					  ],
					  [
						"▁outside",
						-3.0
					  ],
					  [
						"▁ministère",
						-3.0
					  ],
					  [
						"▁=",
						-3.0
					  ],
					  [
						"▁film",
						-3.0
					  ],
					  [
						"▁revenu",
						-3.0
					  ],
					  [
						"▁Ministry",
						-3.0
					  ],
					  [
						"▁figure",
						-3.0
					  ],
					  [
						"▁volume",
						-3.0
					  ],
					  [
						"▁multi",
						-3.0
					  ],
					  [
						"▁Jean",
						-3.0
					  ],
					  [
						"▁exchange",
						-3.0
					  ],
					  [
						"▁Policy",
						-3.0
					  ],
					  [
						"▁Secretariat",
						-3.0
					  ],
					  [
						"▁infrastructure",
						-3.0
					  ],
					  [
						"▁Page",
						-3.0
					  ],
					  [
						"▁lead",
						-3.0
					  ],
					  [
						"▁added",
						-3.0
					  ],
					  [
						"▁réalisation",
						-3.0
					  ],
					  [
						"`",
						-3.0
					  ],
					  [
						"▁conflict",
						-3.0
					  ],
					  [
						"▁2005,",
						-3.0
					  ],
					  [
						"même",
						-3.0
					  ],
					  [
						"▁32",
						-3.0
					  ],
					  [
						"▁planning",
						-3.0
					  ],
					  [
						"▁disponible",
						-3.0
					  ],
					  [
						"▁pauvreté",
						-3.0
					  ],
					  [
						"▁critères",
						-3.0
					  ],
					  [
						"pro",
						-3.0
					  ],
					  [
						"▁moyenne",
						-3.0
					  ],
					  [
						"▁objectif",
						-3.0
					  ],
					  [
						"▁Membres",
						-3.0
					  ],
					  [
						"▁web",
						-3.0
					  ],
					  [
						"▁parler",
						-3.0
					  ],
					  [
						"▁issued",
						-3.0
					  ],
					  [
						"▁sure",
						-3.0
					  ],
					  [
						"▁John",
						-3.0
					  ],
					  [
						"one",
						-3.0
					  ],
					  [
						"▁Program",
						-3.0
					  ],
					  [
						"▁1995",
						-3.0
					  ],
					  [
						"▁relatif",
						-3.0
					  ],
					  [
						"0",
						-3.0
					  ],
					  [
						"▁débat",
						-3.0
					  ],
					  [
						"▁valeurs",
						-3.0
					  ],
					  [
						"▁Royaume",
						-3.0
					  ],
					  [
						"▁matériel",
						-3.0
					  ],
					  [
						"▁changement",
						-3.0
					  ],
					  [
						"▁instrument",
						-3.0
					  ],
					  [
						"▁model",
						-3.0
					  ],
					  [
						"▁agreements",
						-3.0
					  ],
					  [
						"25",
						-3.0
					  ],
					  [
						"▁contained",
						-3.0
					  ],
					  [
						"▁compétences",
						-3.0
					  ],
					  [
						"▁violations",
						-3.0
					  ],
					  [
						"▁2016",
						-3.0
					  ],
					  [
						"▁identified",
						-3.0
					  ],
					  [
						"▁fut",
						-3.0
					  ],
					  [
						"01",
						-3.0
					  ],
					  [
						"▁rural",
						-3.0
					  ],
					  [
						"▁2006,",
						-3.0
					  ],
					  [
						"▁relatifs",
						-3.0
					  ],
					  [
						"▁studies",
						-3.0
					  ],
					  [
						"▁propositions",
						-3.0
					  ],
					  [
						"▁train",
						-3.0
					  ],
					  [
						"▁economy",
						-3.0
					  ],
					  [
						"mer",
						-3.0
					  ],
					  [
						"▁itself",
						-3.0
					  ],
					  [
						"▁associated",
						-3.0
					  ],
					  [
						"▁troisième",
						-3.0
					  ],
					  [
						"▁terre",
						-3.0
					  ],
					  [
						"▁North",
						-3.0
					  ],
					  [
						"▁internal",
						-3.0
					  ],
					  [
						"70",
						-3.0
					  ],
					  [
						"▁intérieur",
						-3.0
					  ],
					  [
						"▁Germany",
						-3.0
					  ],
					  [
						"▁Alors",
						-3.0
					  ],
					  [
						"da",
						-3.0
					  ],
					  [
						"ations",
						-3.0
					  ],
					  [
						"▁While",
						-3.0
					  ],
					  [
						"▁cm",
						-3.0
					  ],
					  [
						"▁parts",
						-3.0
					  ],
					  [
						"▁opportunities",
						-3.0
					  ],
					  [
						"▁corps",
						-3.0
					  ],
					  [
						"▁Association",
						-3.0
					  ],
					  [
						"▁created",
						-3.0
					  ],
					  [
						"▁See",
						-3.0
					  ],
					  [
						"min",
						-3.0
					  ],
					  [
						"ES",
						-3.0
					  ],
					  [
						"8",
						-3.0
					  ],
					  [
						"▁art",
						-3.0
					  ],
					  [
						"▁paid",
						-3.0
					  ],
					  [
						"▁discussions",
						-3.0
					  ],
					  [
						"▁death",
						-3.0
					  ],
					  [
						"▁Since",
						-3.0
					  ],
					  [
						"▁Avec",
						-3.0
					  ],
					  [
						"▁objective",
						-3.0
					  ],
					  [
						"▁strong",
						-3.0
					  ],
					  [
						"dessus",
						-3.0
					  ],
					  [
						"▁réserve",
						-3.0
					  ],
					  [
						"▁lack",
						-3.0
					  ],
					  [
						"▁war",
						-3.0
					  ],
					  [
						"▁employees",
						-3.0
					  ],
					  [
						"assurer",
						-3.0
					  ],
					  [
						"▁visit",
						-3.0
					  ],
					  [
						"▁constitue",
						-3.0
					  ],
					  [
						"▁materials",
						-3.0
					  ],
					  [
						"▁succès",
						-3.0
					  ],
					  [
						"▁2004,",
						-3.0
					  ],
					  [
						"▁facilities",
						-3.0
					  ],
					  [
						"▁forms",
						-3.0
					  ],
					  [
						"▁demander",
						-3.0
					  ],
					  [
						"▁établi",
						-3.0
					  ],
					  [
						"activité",
						-3.0
					  ],
					  [
						"▁University",
						-3.0
					  ],
					  [
						"▁ad",
						-3.0
					  ],
					  [
						"▁technologie",
						-3.0
					  ],
					  [
						"▁village",
						-3.0
					  ],
					  [
						"▁organes",
						-3.0
					  ],
					  [
						"▁principle",
						-3.0
					  ],
					  [
						"ization",
						-3.0
					  ],
					  [
						"▁étude",
						-3.0
					  ],
					  [
						"ite",
						-3.0
					  ],
					  [
						"▁act",
						-3.0
					  ],
					  [
						"▁conseil",
						-3.0
					  ],
					  [
						"95",
						-3.0
					  ],
					  [
						"▁operation",
						-3.0
					  ],
					  [
						"▁expressed",
						-3.0
					  ],
					  [
						"▁coût",
						-3.0
					  ],
					  [
						"▁behalf",
						-3.0
					  ],
					  [
						"▁régional",
						-3.0
					  ],
					  [
						"▁sûr",
						-3.0
					  ],
					  [
						"origine",
						-3.0
					  ],
					  [
						"ana",
						-3.0
					  ],
					  [
						"▁asked",
						-3.0
					  ],
					  [
						"▁ever",
						-3.0
					  ],
					  [
						"▁stock",
						-3.0
					  ],
					  [
						"▁forward",
						-3.0
					  ],
					  [
						"80",
						-3.0
					  ],
					  [
						"▁Executive",
						-3.0
					  ],
					  [
						"▁His",
						-3.0
					  ],
					  [
						"▁preuve",
						-3.0
					  ],
					  [
						"▁structures",
						-3.0
					  ],
					  [
						"▁serious",
						-3.0
					  ],
					  [
						"▁via",
						-3.0
					  ],
					  [
						"▁seen",
						-3.0
					  ],
					  [
						"▁criminal",
						-3.0
					  ],
					  [
						"▁original",
						-3.0
					  ],
					  [
						"ants",
						-3.0
					  ],
					  [
						"▁rapide",
						-3.0
					  ],
					  [
						"▁micro",
						-3.0
					  ],
					  [
						"18",
						-3.0
					  ],
					  [
						"▁head",
						-3.0
					  ],
					  [
						"▁client",
						-3.0
					  ],
					  [
						"▁establish",
						-3.0
					  ],
					  [
						"▁items",
						-3.0
					  ],
					  [
						"▁ET",
						-3.0
					  ],
					  [
						"▁protéger",
						-3.0
					  ],
					  [
						"▁torture",
						-3.0
					  ],
					  [
						"▁côté",
						-3.0
					  ],
					  [
						"▁priority",
						-3.0
					  ],
					  [
						"▁entreprise",
						-3.0
					  ],
					  [
						"▁conclusion",
						-3.0
					  ],
					  [
						"▁Decision",
						-3.0
					  ],
					  [
						"▁citoyens",
						-3.0
					  ],
					  [
						"▁faisant",
						-3.0
					  ],
					  [
						"▁formes",
						-3.0
					  ],
					  [
						"▁bar",
						-3.0
					  ],
					  [
						"▁gaz",
						-3.0
					  ],
					  [
						"▁chargé",
						-3.0
					  ],
					  [
						"▁français",
						-3.0
					  ],
					  [
						"▁Party",
						-3.0
					  ],
					  [
						"▁words",
						-3.0
					  ],
					  [
						"▁postes",
						-3.0
					  ],
					  [
						"▁rapidement",
						-3.0
					  ],
					  [
						"▁semble",
						-3.0
					  ],
					  [
						"▁initial",
						-3.0
					  ],
					  [
						"▁gouvernementale",
						-3.0
					  ],
					  [
						"▁stay",
						-3.0
					  ],
					  [
						"▁China",
						-3.0
					  ],
					  [
						"▁employés",
						-3.0
					  ],
					  [
						"▁1994",
						-3.0
					  ],
					  [
						"▁wish",
						-3.0
					  ],
					  [
						"▁proposals",
						-3.0
					  ],
					  [
						"▁Protocol",
						-3.0
					  ],
					  [
						"▁entitled",
						-3.0
					  ],
					  [
						"▁whose",
						-3.0
					  ],
					  [
						"▁Qui",
						-3.0
					  ],
					  [
						"▁faible",
						-3.0
					  ],
					  [
						"▁transfer",
						-3.0
					  ],
					  [
						"▁poverty",
						-3.0
					  ],
					  [
						"▁para",
						-3.0
					  ],
					  [
						"▁plutôt",
						-3.0
					  ],
					  [
						"▁garantir",
						-3.0
					  ],
					  [
						"of",
						-3.0
					  ],
					  [
						"▁works",
						-3.0
					  ],
					  [
						"▁rather",
						-3.0
					  ],
					  [
						"▁Central",
						-3.0
					  ],
					  [
						"▁2003,",
						-3.0
					  ],
					  [
						"▁Cependant",
						-3.0
					  ],
					  [
						"▁veut",
						-3.0
					  ],
					  [
						"▁applied",
						-3.0
					  ],
					  [
						"▁students",
						-3.0
					  ],
					  [
						"▁sociétés",
						-3.0
					  ],
					  [
						"▁approche",
						-3.0
					  ],
					  [
						"▁derniers",
						-3.0
					  ],
					  [
						"▁33",
						-3.0
					  ],
					  [
						"▁prevent",
						-3.0
					  ],
					  [
						"▁reduce",
						-3.0
					  ],
					  [
						"li",
						-3.0
					  ],
					  [
						"▁Commissioner",
						-3.0
					  ],
					  [
						"▁lois",
						-3.0
					  ],
					  [
						"▁San",
						-3.0
					  ],
					  [
						"▁numéro",
						-3.0
					  ],
					  [
						"▁port",
						-3.0
					  ],
					  [
						"▁statut",
						-3.0
					  ],
					  [
						"▁institution",
						-3.0
					  ],
					  [
						"▁obligation",
						-3.0
					  ],
					  [
						"▁voyage",
						-3.0
					  ],
					  [
						"▁secrétariat",
						-3.0
					  ],
					  [
						"▁emploi",
						-3.0
					  ],
					  [
						"▁Depuis",
						-3.0
					  ],
					  [
						"▁implement",
						-3.0
					  ],
					  [
						"▁arrangements",
						-3.0
					  ],
					  [
						"der",
						-3.0
					  ],
					  [
						"▁station",
						-3.0
					  ],
					  [
						"▁longer",
						-3.0
					  ],
					  [
						"▁semaine",
						-3.0
					  ],
					  [
						"▁présence",
						-3.0
					  ],
					  [
						"▁effort",
						-3.0
					  ],
					  [
						"▁publiques",
						-3.0
					  ],
					  [
						"▁published",
						-3.0
					  ],
					  [
						"▁modifications",
						-3.0
					  ],
					  [
						"▁carte",
						-3.0
					  ],
					  [
						"▁along",
						-3.0
					  ],
					  [
						"▁overall",
						-3.0
					  ],
					  [
						"▁Notre",
						-3.0
					  ],
					  [
						"▁prepared",
						-3.0
					  ],
					  [
						"▁individuals",
						-3.0
					  ],
					  [
						"▁cycle",
						-3.0
					  ],
					  [
						"▁spéciale",
						-3.0
					  ],
					  [
						"▁commitment",
						-3.0
					  ],
					  [
						"▁Bar",
						-3.0
					  ],
					  [
						"▁vente",
						-3.0
					  ],
					  [
						"ité",
						-3.0
					  ],
					  [
						"▁photos",
						-3.0
					  ],
					  [
						"▁challenges",
						-3.0
					  ],
					  [
						"▁diverses",
						-3.0
					  ],
					  [
						"▁Votre",
						-3.0
					  ],
					  [
						"établissement",
						-3.0
					  ],
					  [
						"▁Kingdom",
						-3.0
					  ],
					  [
						"35",
						-3.0
					  ],
					  [
						"▁pense",
						-3.0
					  ],
					  [
						"▁liés",
						-3.0
					  ],
					  [
						"▁fichier",
						-3.0
					  ],
					  [
						"▁size",
						-3.0
					  ],
					  [
						"▁vision",
						-3.0
					  ],
					  [
						"▁medical",
						-3.0
					  ],
					  [
						"▁achieve",
						-3.0
					  ],
					  [
						"▁grands",
						-3.0
					  ],
					  [
						"avis",
						-3.0
					  ],
					  [
						"▁appel",
						-3.0
					  ],
					  [
						"▁Est",
						-3.0
					  ],
					  [
						"▁propriété",
						-3.0
					  ],
					  [
						"▁tableau",
						-3.0
					  ],
					  [
						"▁comprehensive",
						-3.0
					  ],
					  [
						"▁themselves",
						-3.0
					  ],
					  [
						"▁regulations",
						-3.0
					  ],
					  [
						"▁addressed",
						-3.0
					  ],
					  [
						"▁jeu",
						-3.0
					  ],
					  [
						"ative",
						-3.0
					  ],
					  [
						"▁é",
						-3.0
					  ],
					  [
						"ème",
						-3.0
					  ],
					  [
						"▁caractère",
						-3.0
					  ],
					  [
						"▁responsable",
						-3.0
					  ],
					  [
						"CN",
						-3.0
					  ],
					  [
						"▁Trade",
						-3.0
					  ],
					  [
						"tro",
						-3.0
					  ],
					  [
						"▁tour",
						-3.0
					  ],
					  [
						"▁meilleure",
						-3.0
					  ],
					  [
						"▁format",
						-3.0
					  ],
					  [
						"▁American",
						-3.0
					  ],
					  [
						"▁délai",
						-3.0
					  ],
					  [
						"▁conséquent",
						-3.0
					  ],
					  [
						"▁surtout",
						-3.0
					  ],
					  [
						"▁statistiques",
						-3.0
					  ],
					  [
						"▁makes",
						-3.0
					  ],
					  [
						"▁élevé",
						-3.0
					  ],
					  [
						"▁understand",
						-3.0
					  ],
					  [
						"em",
						-3.0
					  ],
					  [
						"▁travel",
						-3.0
					  ],
					  [
						"▁4,",
						-3.0
					  ],
					  [
						"▁regular",
						-3.0
					  ],
					  [
						"▁concept",
						-3.0
					  ],
					  [
						"ated",
						-3.0
					  ],
					  [
						"▁comprend",
						-3.0
					  ],
					  [
						"ig",
						-3.0
					  ],
					  [
						"▁ait",
						-3.0
					  ],
					  [
						"▁travers",
						-3.0
					  ],
					  [
						"▁delegation",
						-3.0
					  ],
					  [
						"▁marchandises",
						-3.0
					  ],
					  [
						"▁soon",
						-3.0
					  ],
					  [
						"▁Be",
						-3.0
					  ],
					  [
						"▁front",
						-3.0
					  ],
					  [
						"▁liées",
						-3.0
					  ],
					  [
						"▁thought",
						-3.0
					  ],
					  [
						"▁passer",
						-3.0
					  ],
					  [
						"US",
						-3.0
					  ],
					  [
						"▁faites",
						-3.0
					  ],
					  [
						"▁prices",
						-3.0
					  ],
					  [
						"▁2002,",
						-3.0
					  ],
					  [
						"▁mécanismes",
						-3.0
					  ],
					  [
						"12",
						-3.0
					  ],
					  [
						"▁throughout",
						-3.0
					  ],
					  [
						"▁guide",
						-3.0
					  ],
					  [
						"▁6.",
						-3.0
					  ],
					  [
						"▁rule",
						-3.0
					  ],
					  [
						"▁continuer",
						-3.0
					  ],
					  [
						"▁déclaré",
						-3.0
					  ],
					  [
						"▁prévu",
						-3.0
					  ],
					  [
						"▁equal",
						-3.0
					  ],
					  [
						"▁encourage",
						-3.0
					  ],
					  [
						"ga",
						-3.0
					  ],
					  [
						"▁ensuite",
						-3.0
					  ],
					  [
						"▁36",
						-3.0
					  ],
					  [
						"▁difficult",
						-3.0
					  ],
					  [
						"▁nuit",
						-3.0
					  ],
					  [
						"ina",
						-3.0
					  ],
					  [
						"▁criteria",
						-3.0
					  ],
					  [
						"mo",
						-3.0
					  ],
					  [
						"▁half",
						-3.0
					  ],
					  [
						"état",
						-3.0
					  ],
					  [
						"▁brought",
						-3.0
					  ],
					  [
						"▁Inc",
						-3.0
					  ],
					  [
						"▁bas",
						-3.0
					  ],
					  [
						"▁bio",
						-3.0
					  ],
					  [
						"▁Protection",
						-3.0
					  ],
					  [
						"▁places",
						-3.0
					  ],
					  [
						"▁expérience",
						-3.0
					  ],
					  [
						"▁Regulations",
						-3.0
					  ],
					  [
						"▁consommation",
						-3.0
					  ],
					  [
						"▁history",
						-3.0
					  ],
					  [
						"▁meilleur",
						-3.0
					  ],
					  [
						"▁comprendre",
						-3.0
					  ],
					  [
						"▁utilisés",
						-3.0
					  ],
					  [
						"▁faciliter",
						-3.0
					  ],
					  [
						"▁reduction",
						-3.0
					  ],
					  [
						"▁crois",
						-3.0
					  ],
					  [
						"eux",
						-3.0
					  ],
					  [
						"▁aller",
						-3.0
					  ],
					  [
						"▁exercice",
						-3.0
					  ],
					  [
						"▁Déclaration",
						-3.0
					  ],
					  [
						"▁spécifiques",
						-3.0
					  ],
					  [
						"▁professional",
						-3.0
					  ],
					  [
						"▁catégorie",
						-3.0
					  ],
					  [
						"▁centrale",
						-3.0
					  ],
					  [
						"▁concurrence",
						-3.0
					  ],
					  [
						"▁2000,",
						-3.0
					  ],
					  [
						"▁quant",
						-3.0
					  ],
					  [
						"▁prévoit",
						-3.0
					  ],
					  [
						"▁directeur",
						-3.0
					  ],
					  [
						"▁éducation",
						-3.0
					  ],
					  [
						"▁véhicules",
						-3.0
					  ],
					  [
						"▁annexe",
						-3.0
					  ],
					  [
						"importance",
						-3.0
					  ],
					  [
						"▁2007,",
						-3.0
					  ],
					  [
						"IC",
						-3.0
					  ],
					  [
						"▁chacun",
						-3.0
					  ],
					  [
						"▁fils",
						-3.0
					  ],
					  [
						"▁directives",
						-3.0
					  ],
					  [
						"▁ago",
						-3.0
					  ],
					  [
						"▁stage",
						-3.0
					  ],
					  [
						"▁pêche",
						-3.0
					  ],
					  [
						"▁require",
						-3.0
					  ],
					  [
						"$",
						-3.0
					  ],
					  [
						"▁créé",
						-3.0
					  ],
					  [
						"▁matters",
						-3.0
					  ],
					  [
						"▁mandate",
						-3.0
					  ],
					  [
						"▁remain",
						-3.0
					  ],
					  [
						"▁pursuant",
						-3.0
					  ],
					  [
						"▁peuple",
						-3.0
					  ],
					  [
						"▁Part",
						-3.0
					  ],
					  [
						"▁supply",
						-3.0
					  ],
					  [
						"▁père",
						-3.0
					  ],
					  [
						"IT",
						-3.0
					  ],
					  [
						"ting",
						-3.0
					  ],
					  [
						"▁Free",
						-3.0
					  ],
					  [
						"▁details",
						-3.0
					  ],
					  [
						"den",
						-3.0
					  ],
					  [
						"CEE",
						-3.0
					  ],
					  [
						"▁Man",
						-3.0
					  ],
					  [
						"▁hotel",
						-3.0
					  ],
					  [
						"▁protect",
						-3.0
					  ],
					  [
						"▁Ms",
						-3.0
					  ],
					  [
						"(1)",
						-3.0
					  ],
					  [
						"exécution",
						-3.0
					  ],
					  [
						"ol",
						-3.0
					  ],
					  [
						"▁tenue",
						-3.0
					  ],
					  [
						"▁Secrétariat",
						-3.0
					  ],
					  [
						"▁road",
						-3.0
					  ],
					  [
						"▁établissements",
						-3.0
					  ],
					  [
						"▁balance",
						-3.0
					  ],
					  [
						"▁48",
						-3.0
					  ],
					  [
						"▁citizens",
						-3.0
					  ],
					  [
						"▁occasion",
						-3.0
					  ],
					  [
						"▁science",
						-3.0
					  ],
					  [
						"▁Montréal",
						-3.0
					  ],
					  [
						"▁financier",
						-3.0
					  ],
					  [
						"▁feel",
						-3.0
					  ],
					  [
						"▁facteurs",
						-3.0
					  ],
					  [
						"year",
						-3.0
					  ],
					  [
						"▁sessions",
						-3.0
					  ],
					  [
						"▁contrat",
						-3.0
					  ],
					  [
						"▁activité",
						-3.0
					  ],
					  [
						"exploitation",
						-3.0
					  ],
					  [
						"▁series",
						-3.0
					  ],
					  [
						"▁mind",
						-3.0
					  ],
					  [
						"▁connaissances",
						-3.0
					  ],
					  [
						"lin",
						-3.0
					  ],
					  [
						"eurs",
						-3.0
					  ],
					  [
						"▁langues",
						-3.0
					  ],
					  [
						"▁Français",
						-3.0
					  ],
					  [
						"▁prior",
						-3.0
					  ],
					  [
						"▁methods",
						-3.0
					  ],
					  [
						"▁fond",
						-3.0
					  ],
					  [
						"▁prévues",
						-3.0
					  ],
					  [
						"▁comments",
						-3.0
					  ],
					  [
						"by",
						-3.0
					  ],
					  [
						"▁soumis",
						-3.0
					  ],
					  [
						"▁images",
						-3.0
					  ],
					  [
						"▁requests",
						-3.0
					  ],
					  [
						"▁House",
						-3.0
					  ],
					  [
						"analyse",
						-3.0
					  ],
					  [
						"96",
						-3.0
					  ],
					  [
						"▁Accueil",
						-3.0
					  ],
					  [
						"27",
						-3.0
					  ],
					  [
						"Uni",
						-3.0
					  ],
					  [
						"ka",
						-3.0
					  ],
					  [
						"▁humaines",
						-3.0
					  ],
					  [
						"vis",
						-3.0
					  ],
					  [
						"ang",
						-3.0
					  ],
					  [
						"▁petite",
						-3.0
					  ],
					  [
						"▁big",
						-3.0
					  ],
					  [
						"▁accords",
						-3.0
					  ],
					  [
						"▁Let",
						-3.0
					  ],
					  [
						"▁values",
						-3.0
					  ],
					  [
						"▁planification",
						-3.0
					  ],
					  [
						"▁2001,",
						-3.0
					  ],
					  [
						"▁actes",
						-3.0
					  ],
					  [
						"28",
						-3.0
					  ],
					  [
						"▁understanding",
						-3.0
					  ],
					  [
						"▁hard",
						-3.0
					  ],
					  [
						"▁Israel",
						-3.0
					  ],
					  [
						"▁steps",
						-3.0
					  ],
					  [
						"▁réfugiés",
						-3.0
					  ],
					  [
						"▁matières",
						-3.0
					  ],
					  [
						"▁Italy",
						-3.0
					  ],
					  [
						"▁raisons",
						-3.0
					  ],
					  [
						"▁independent",
						-3.0
					  ],
					  [
						"▁bois",
						-3.0
					  ],
					  [
						"▁processes",
						-3.0
					  ],
					  [
						"▁k",
						-3.0
					  ],
					  [
						"for",
						-3.0
					  ],
					  [
						"ah",
						-3.0
					  ],
					  [
						"▁net",
						-3.0
					  ],
					  [
						"▁Force",
						-3.0
					  ],
					  [
						"▁chance",
						-3.0
					  ],
					  [
						"▁responsables",
						-3.0
					  ],
					  [
						"▁possibilités",
						-3.0
					  ],
					  [
						"▁IV",
						-3.0
					  ],
					  [
						"▁competition",
						-3.0
					  ],
					  [
						"▁stated",
						-3.0
					  ],
					  [
						"▁Under",
						-3.0
					  ],
					  [
						"▁laws",
						-3.0
					  ],
					  [
						"▁1990",
						-3.0
					  ],
					  [
						"▁nations",
						-3.0
					  ],
					  [
						"▁difficile",
						-3.0
					  ],
					  [
						"des",
						-3.0
					  ],
					  [
						"▁Environment",
						-3.0
					  ],
					  [
						"▁défense",
						-3.0
					  ],
					  [
						"▁locaux",
						-3.0
					  ],
					  [
						"▁Monsieur",
						-3.0
					  ],
					  [
						"▁Quebec",
						-3.0
					  ],
					  [
						"▁terrain",
						-3.0
					  ],
					  [
						"13",
						-3.0
					  ],
					  [
						"▁species",
						-3.0
					  ],
					  [
						"▁distance",
						-3.0
					  ],
					  [
						"▁vehicle",
						-3.0
					  ],
					  [
						"ux",
						-3.0
					  ],
					  [
						"▁strengthen",
						-3.0
					  ],
					  [
						"▁cookies",
						-3.0
					  ],
					  [
						"▁Search",
						-3.0
					  ],
					  [
						"▁lumière",
						-3.0
					  ],
					  [
						"▁states",
						-3.0
					  ],
					  [
						"▁East",
						-3.0
					  ],
					  [
						"▁importants",
						-3.0
					  ],
					  [
						"▁examiner",
						-3.0
					  ],
					  [
						"▁libre",
						-3.0
					  ],
					  [
						"ni",
						-3.0
					  ],
					  [
						"▁record",
						-3.0
					  ],
					  [
						"▁option",
						-3.0
					  ],
					  [
						"▁covered",
						-3.0
					  ],
					  [
						"17",
						-3.0
					  ],
					  [
						"▁enough",
						-3.0
					  ],
					  [
						"32",
						-3.0
					  ],
					  [
						"▁industrial",
						-3.0
					  ],
					  [
						"Add",
						-3.0
					  ],
					  [
						"ti",
						-3.0
					  ],
					  [
						"▁travailler",
						-3.0
					  ],
					  [
						"organisation",
						-3.0
					  ],
					  [
						"▁proposé",
						-3.0
					  ],
					  [
						"▁sociales",
						-3.0
					  ],
					  [
						"▁interests",
						-3.0
					  ],
					  [
						"®",
						-3.0
					  ],
					  [
						"▁payment",
						-3.0
					  ],
					  [
						"▁chapitre",
						-3.0
					  ],
					  [
						"▁émissions",
						-3.0
					  ],
					  [
						"16",
						-3.0
					  ],
					  [
						"▁crédit",
						-3.0
					  ],
					  [
						"EEC",
						-3.0
					  ],
					  [
						"ri",
						-3.0
					  ],
					  [
						"▁search",
						-3.0
					  ],
					  [
						"▁provinces",
						-3.0
					  ],
					  [
						"▁toutefois",
						-3.0
					  ],
					  [
						"▁reform",
						-3.0
					  ],
					  [
						"▁reason",
						-3.0
					  ],
					  [
						"▁suivre",
						-3.0
					  ],
					  [
						"▁month",
						-3.0
					  ],
					  [
						"▁likely",
						-3.0
					  ],
					  [
						"▁reasons",
						-3.0
					  ],
					  [
						"▁Support",
						-3.0
					  ],
					  [
						"▁haute",
						-3.0
					  ],
					  [
						"▁jobs",
						-3.0
					  ],
					  [
						"▁Protocole",
						-3.0
					  ],
					  [
						"▁City",
						-3.0
					  ],
					  [
						"▁quel",
						-3.0
					  ],
					  [
						"time",
						-3.0
					  ],
					  [
						"▁creation",
						-3.0
					  ],
					  [
						"11",
						-3.0
					  ],
					  [
						"▁hope",
						-3.0
					  ],
					  [
						"▁recommended",
						-3.0
					  ],
					  [
						"▁conducted",
						-3.0
					  ],
					  [
						"▁prend",
						-3.0
					  ],
					  [
						"▁transports",
						-3.0
					  ],
					  [
						"▁chambres",
						-3.0
					  ],
					  [
						"efficacité",
						-3.0
					  ],
					  [
						"▁elements",
						-3.0
					  ],
					  [
						"vi",
						-3.0
					  ],
					  [
						"▁chambre",
						-3.0
					  ],
					  [
						"▁dispose",
						-3.0
					  ],
					  [
						"▁humanitarian",
						-3.0
					  ],
					  [
						"▁sea",
						-3.0
					  ],
					  [
						"enseignement",
						-3.0
					  ],
					  [
						"économie",
						-3.0
					  ],
					  [
						"▁lignes",
						-3.0
					  ],
					  [
						"nd",
						-3.0
					  ],
					  [
						"▁vol",
						-3.0
					  ],
					  [
						"rie",
						-3.0
					  ],
					  [
						"▁crimes",
						-3.0
					  ],
					  [
						"ating",
						-3.0
					  ],
					  [
						"▁Mo",
						-3.0
					  ],
					  [
						"ED",
						-3.0
					  ],
					  [
						"▁Lorsque",
						-3.0
					  ],
					  [
						"▁indicated",
						-3.0
					  ],
					  [
						"▁supported",
						-3.0
					  ],
					  [
						"▁fonctionnaires",
						-3.0
					  ],
					  [
						"▁concerns",
						-3.0
					  ],
					  [
						"▁lettre",
						-3.0
					  ],
					  [
						"▁jouer",
						-3.0
					  ],
					  [
						"▁7.",
						-3.0
					  ],
					  [
						"▁strategic",
						-3.0
					  ],
					  [
						"▁Chine",
						-3.0
					  ],
					  [
						"élaboration",
						-3.0
					  ],
					  [
						"▁caractéristique",
						-3.0
					  ],
					  [
						"IS",
						-3.0
					  ],
					  [
						"▁committed",
						-3.0
					  ],
					  [
						"▁Paul",
						-3.0
					  ],
					  [
						"▁normal",
						-3.0
					  ],
					  [
						"▁email",
						-3.0
					  ],
					  [
						"▁confiance",
						-3.0
					  ],
					  [
						"ized",
						-3.0
					  ],
					  [
						"▁électronique",
						-3.0
					  ],
					  [
						"▁true",
						-3.0
					  ],
					  [
						"▁locales",
						-3.0
					  ],
					  [
						"▁image",
						-3.0
					  ],
					  [
						"▁sectors",
						-3.0
					  ],
					  [
						"▁faits",
						-3.0
					  ],
					  [
						"-2",
						-3.0
					  ],
					  [
						"▁News",
						-3.0
					  ],
					  [
						"▁near",
						-3.0
					  ],
					  [
						"▁increasing",
						-3.0
					  ],
					  [
						"▁priorités",
						-3.0
					  ],
					  [
						"tin",
						-3.0
					  ],
					  [
						"▁TV",
						-3.0
					  ],
					  [
						"▁defined",
						-3.0
					  ],
					  [
						"égard",
						-3.0
					  ],
					  [
						"▁fédéral",
						-3.0
					  ],
					  [
						"▁intérêts",
						-3.0
					  ],
					  [
						"-1",
						-3.0
					  ],
					  [
						"▁convention",
						-3.0
					  ],
					  [
						"▁markets",
						-3.0
					  ],
					  [
						"97",
						-3.0
					  ],
					  [
						"▁modification",
						-3.0
					  ],
					  [
						"▁circumstances",
						-3.0
					  ],
					  [
						"▁AND",
						-3.0
					  ],
					  [
						"▁informed",
						-3.0
					  ],
					  [
						"▁factors",
						-3.0
					  ],
					  [
						"▁comptes",
						-3.0
					  ],
					  [
						"▁contribute",
						-3.0
					  ],
					  [
						"pe",
						-3.0
					  ],
					  [
						"▁software",
						-3.0
					  ],
					  [
						"▁went",
						-3.0
					  ],
					  [
						"45",
						-3.0
					  ],
					  [
						"net",
						-3.0
					  ],
					  [
						"▁completed",
						-3.0
					  ],
					  [
						"▁engagement",
						-3.0
					  ],
					  [
						"▁actuelle",
						-3.0
					  ],
					  [
						"▁takes",
						-3.0
					  ],
					  [
						"▁interne",
						-3.0
					  ],
					  [
						"▁transfert",
						-3.0
					  ],
					  [
						"▁2019",
						-3.0
					  ],
					  [
						"▁oil",
						-3.0
					  ],
					  [
						"▁game",
						-3.0
					  ],
					  [
						"▁maintenance",
						-3.0
					  ],
					  [
						"▁anglais",
						-3.0
					  ],
					  [
						"▁contract",
						-3.0
					  ],
					  [
						"▁composition",
						-3.0
					  ],
					  [
						"▁médias",
						-3.0
					  ],
					  [
						"▁ways",
						-3.0
					  ],
					  [
						"▁lower",
						-3.0
					  ],
					  [
						"▁plein",
						-3.0
					  ],
					  [
						"▁menu",
						-3.0
					  ],
					  [
						"▁cover",
						-3.0
					  ],
					  [
						"urs",
						-3.0
					  ],
					  [
						"he",
						-3.0
					  ],
					  [
						"▁venir",
						-3.0
					  ],
					  [
						"▁positions",
						-3.0
					  ],
					  [
						"ha",
						-3.0
					  ],
					  [
						"▁ai",
						-3.0
					  ],
					  [
						"io",
						-3.0
					  ],
					  [
						"▁2017",
						-3.0
					  ],
					  [
						"▁34",
						-3.0
					  ],
					  [
						"dé",
						-3.0
					  ],
					  [
						"▁ask",
						-3.0
					  ],
					  [
						"▁climate",
						-3.0
					  ],
					  [
						"▁families",
						-3.0
					  ],
					  [
						"▁told",
						-3.0
					  ],
					  [
						"▁satisfaction",
						-3.0
					  ],
					  [
						"▁juridiques",
						-3.0
					  ],
					  [
						"▁méthode",
						-3.0
					  ],
					  [
						"▁documentation",
						-3.0
					  ],
					  [
						"».",
						-3.0
					  ],
					  [
						"ville",
						-3.0
					  ],
					  [
						"▁établir",
						-3.0
					  ],
					  [
						"▁manner",
						-3.0
					  ],
					  [
						"▁installations",
						-3.0
					  ],
					  [
						"tic",
						-3.0
					  ],
					  [
						"tra",
						-3.0
					  ],
					  [
						"CO",
						-3.0
					  ],
					  [
						"ko",
						-3.0
					  ],
					  [
						"▁deal",
						-3.0
					  ],
					  [
						"▁négociations",
						-3.0
					  ],
					  [
						"▁coming",
						-3.0
					  ],
					  [
						"▁gas",
						-3.0
					  ],
					  [
						"▁Prix",
						-3.0
					  ],
					  [
						"▁operational",
						-3.0
					  ],
					  [
						"▁mg",
						-3.0
					  ],
					  [
						"▁freedom",
						-3.0
					  ],
					  [
						"▁follows",
						-3.0
					  ],
					  [
						"▁letter",
						-3.0
					  ],
					  [
						"▁beginning",
						-3.0
					  ],
					  [
						"▁communautés",
						-3.0
					  ],
					  [
						"+",
						-3.0
					  ],
					  [
						"▁Pays",
						-3.0
					  ],
					  [
						"▁petits",
						-3.0
					  ],
					  [
						"14",
						-3.0
					  ],
					  [
						".7",
						-3.0
					  ],
					  [
						"▁Di",
						-3.0
					  ],
					  [
						"▁delivery",
						-3.0
					  ],
					  [
						"▁avantages",
						-3.0
					  ],
					  [
						"44",
						-3.0
					  ],
					  [
						"▁conseils",
						-3.0
					  ],
					  [
						"▁crise",
						-3.0
					  ],
					  [
						"▁marque",
						-3.0
					  ],
					  [
						"▁According",
						-3.0
					  ],
					  [
						"▁West",
						-3.0
					  ],
					  [
						"55",
						-3.0
					  ],
					  [
						"▁Ainsi",
						-3.0
					  ],
					  [
						"ge",
						-3.0
					  ],
					  [
						"▁vrai",
						-3.0
					  ],
					  [
						"49",
						-3.0
					  ],
					  [
						"▁300",
						-3.0
					  ],
					  [
						"▁retour",
						-3.0
					  ],
					  [
						"▁consultatif",
						-3.0
					  ],
					  [
						"▁pages",
						-3.0
					  ],
					  [
						"▁PC",
						-3.0
					  ],
					  [
						"▁lesquelles",
						-3.0
					  ],
					  [
						"▁Ré",
						-3.0
					  ],
					  [
						"▁looking",
						-3.0
					  ],
					  [
						"▁supérieur",
						-3.0
					  ],
					  [
						"ront",
						-3.0
					  ],
					  [
						"ER",
						-3.0
					  ],
					  [
						"▁Federal",
						-3.0
					  ],
					  [
						"▁written",
						-3.0
					  ],
					  [
						"men",
						-3.0
					  ],
					  [
						"nes",
						-3.0
					  ],
					  [
						"▁taille",
						-3.0
					  ],
					  [
						"▁mechanisms",
						-3.0
					  ],
					  [
						"port",
						-3.0
					  ],
					  [
						"▁écrit",
						-3.0
					  ],
					  [
						"▁navigation",
						-3.0
					  ],
					  [
						"▁stratégies",
						-3.0
					  ],
					  [
						"24",
						-3.0
					  ],
					  [
						"▁Institute",
						-3.0
					  ],
					  [
						"▁intended",
						-3.0
					  ],
					  [
						"tte",
						-3.0
					  ],
					  [
						"▁implemented",
						-3.0
					  ],
					  [
						"37",
						-3.0
					  ],
					  [
						"▁absence",
						-3.0
					  ],
					  [
						"▁Quand",
						-3.0
					  ],
					  [
						"▁Jesus",
						-3.0
					  ],
					  [
						"▁nothing",
						-3.0
					  ],
					  [
						"31",
						-3.0
					  ],
					  [
						"▁connection",
						-3.0
					  ],
					  [
						"▁2008,",
						-3.0
					  ],
					  [
						"▁définition",
						-3.0
					  ],
					  [
						"▁pièces",
						-3.0
					  ],
					  [
						"▁trans",
						-3.0
					  ],
					  [
						"▁vise",
						-3.0
					  ],
					  [
						"qu",
						-3.0
					  ],
					  [
						"▁victims",
						-3.0
					  ],
					  [
						"▁paper",
						-3.0
					  ],
					  [
						"▁stratégique",
						-3.0
					  ],
					  [
						"▁Of",
						-3.0
					  ],
					  [
						"▁everything",
						-3.0
					  ],
					  [
						"▁5,",
						-3.0
					  ],
					  [
						"2,",
						-3.0
					  ],
					  [
						"▁prison",
						-3.0
					  ],
					  [
						"▁affected",
						-3.0
					  ],
					  [
						"ale",
						-3.0
					  ],
					  [
						"ab",
						-3.0
					  ],
					  [
						"▁37",
						-3.0
					  ],
					  [
						"▁Cet",
						-3.0
					  ],
					  [
						"▁réglementation",
						-3.0
					  ],
					  [
						"▁nucléaires",
						-3.0
					  ],
					  [
						"▁ground",
						-3.0
					  ],
					  [
						"ley",
						-3.0
					  ],
					  [
						"day",
						-3.0
					  ],
					  [
						"▁1993",
						-3.0
					  ],
					  [
						"▁Banque",
						-3.0
					  ],
					  [
						"▁violation",
						-3.0
					  ],
					  [
						"▁lesquels",
						-3.0
					  ],
					  [
						"▁almost",
						-3.0
					  ],
					  [
						"▁integration",
						-3.0
					  ],
					  [
						"▁anything",
						-3.0
					  ],
					  [
						"-4",
						-3.0
					  ],
					  [
						"▁pension",
						-3.0
					  ],
					  [
						"▁fais",
						-3.0
					  ],
					  [
						"étude",
						-3.0
					  ],
					  [
						"▁réforme",
						-3.0
					  ],
					  [
						"▁Inter",
						-3.0
					  ],
					  [
						"▁Ajouter",
						-3.0
					  ],
					  [
						"▁conservation",
						-3.0
					  ],
					  [
						"▁dû",
						-3.0
					  ],
					  [
						"▁billion",
						-3.0
					  ],
					  [
						"21",
						-3.0
					  ],
					  [
						"▁guidelines",
						-3.0
					  ],
					  [
						"▁determined",
						-3.0
					  ],
					  [
						"▁move",
						-3.0
					  ],
					  [
						"-3",
						-3.0
					  ],
					  [
						"▁assez",
						-3.0
					  ],
					  [
						"▁conduct",
						-3.0
					  ],
					  [
						"▁extent",
						-3.0
					  ],
					  [
						"▁majority",
						-3.0
					  ],
					  [
						"▁HIV",
						-3.0
					  ],
					  [
						"ub",
						-3.0
					  ],
					  [
						"▁généralement",
						-3.0
					  ],
					  [
						"▁vérification",
						-3.0
					  ],
					  [
						"48",
						-3.0
					  ],
					  [
						"▁remains",
						-3.0
					  ],
					  [
						"lu",
						-3.0
					  ],
					  [
						"▁style",
						-3.0
					  ],
					  [
						"▁conflit",
						-3.0
					  ],
					  [
						"Re",
						-3.0
					  ],
					  [
						"▁Ad",
						-3.0
					  ],
					  [
						"bo",
						-3.0
					  ],
					  [
						"▁views",
						-3.0
					  ],
					  [
						"▁mère",
						-3.0
					  ],
					  [
						"▁(1",
						-3.0
					  ],
					  [
						"Les",
						-3.0
					  ],
					  [
						"▁approval",
						-3.0
					  ],
					  [
						"▁primary",
						-3.0
					  ],
					  [
						"▁compliance",
						-3.0
					  ],
					  [
						"▁presse",
						-3.0
					  ],
					  [
						"▁Education",
						-3.0
					  ],
					  [
						"▁agricultural",
						-3.0
					  ],
					  [
						"▁physical",
						-3.0
					  ],
					  [
						"▁Iraq",
						-3.0
					  ],
					  [
						"▁LE",
						-3.0
					  ],
					  [
						"▁proportion",
						-3.0
					  ],
					  [
						"▁Canadians",
						-3.0
					  ],
					  [
						"IN",
						-3.0
					  ],
					  [
						"▁exercise",
						-3.0
					  ],
					  [
						"▁régionales",
						-3.0
					  ],
					  [
						"▁39",
						-3.0
					  ],
					  [
						"eu",
						-3.0
					  ],
					  [
						"▁Jésus",
						-3.0
					  ],
					  [
						"entre",
						-3.0
					  ],
					  [
						"▁Wi",
						-3.0
					  ],
					  [
						"▁peine",
						-3.0
					  ],
					  [
						"Office",
						-3.0
					  ],
					  [
						"▁implementing",
						-3.0
					  ],
					  [
						"ot",
						-3.0
					  ],
					  [
						"▁provisoire",
						-3.0
					  ],
					  [
						"▁présentation",
						-3.0
					  ],
					  [
						"000",
						-3.0
					  ],
					  [
						"▁provincial",
						-3.0
					  ],
					  [
						"▁conflits",
						-3.0
					  ],
					  [
						"▁objet",
						-3.0
					  ],
					  [
						"▁users",
						-3.0
					  ],
					  [
						"▁instance",
						-3.0
					  ],
					  [
						"car",
						-3.0
					  ],
					  [
						"▁Windows",
						-3.0
					  ],
					  [
						"argent",
						-3.0
					  ],
					  [
						"39",
						-3.0
					  ],
					  [
						"▁described",
						-3.0
					  ],
					  [
						"▁prevention",
						-3.0
					  ],
					  [
						"▁debate",
						-3.0
					  ],
					  [
						"▁Bo",
						-3.0
					  ],
					  [
						"▁integrated",
						-3.0
					  ],
					  [
						"▁poids",
						-3.0
					  ],
					  [
						"▁stop",
						-3.0
					  ],
					  [
						"▁book",
						-3.0
					  ],
					  [
						"▁départ",
						-3.0
					  ],
					  [
						"▁65",
						-3.0
					  ],
					  [
						"▁step",
						-3.0
					  ],
					  [
						"ING",
						-3.0
					  ],
					  [
						"▁EC",
						-3.0
					  ],
					  [
						"▁turn",
						-3.0
					  ],
					  [
						"▁mobile",
						-3.0
					  ],
					  [
						"▁Ar",
						-3.0
					  ],
					  [
						"isme",
						-3.0
					  ],
					  [
						"98",
						-3.0
					  ],
					  [
						"▁185",
						-3.0
					  ],
					  [
						"▁uniquement",
						-3.0
					  ],
					  [
						"▁augmentation",
						-3.0
					  ],
					  [
						"▁Here",
						-3.0
					  ],
					  [
						"▁paiement",
						-3.0
					  ],
					  [
						"ow",
						-3.0
					  ],
					  [
						"▁réseaux",
						-3.0
					  ],
					  [
						"66",
						-3.0
					  ],
					  [
						"▁représente",
						-3.0
					  ],
					  [
						"▁crisis",
						-3.0
					  ],
					  [
						"▁familles",
						-3.0
					  ],
					  [
						"▁tête",
						-3.0
					  ],
					  [
						"75",
						-3.0
					  ],
					  [
						"▁strategies",
						-3.0
					  ],
					  [
						"▁modifier",
						-3.0
					  ],
					  [
						"▁Ottawa",
						-3.0
					  ],
					  [
						"▁Declaration",
						-3.0
					  ],
					  [
						"▁territory",
						-3.0
					  ],
					  [
						"▁parti",
						-3.0
					  ],
					  [
						"▁Then",
						-3.0
					  ],
					  [
						"▁talk",
						-3.0
					  ],
					  [
						"▁influence",
						-3.0
					  ],
					  [
						"▁awareness",
						-3.0
					  ],
					  [
						"▁clearly",
						-3.0
					  ],
					  [
						"▁determine",
						-3.0
					  ],
					  [
						"47",
						-3.0
					  ],
					  [
						"▁75",
						-3.0
					  ],
					  [
						"▁entendu",
						-3.0
					  ],
					  [
						"▁majorité",
						-3.0
					  ],
					  [
						"▁estime",
						-3.0
					  ],
					  [
						"▁cross",
						-3.0
					  ],
					  [
						"▁amended",
						-3.0
					  ],
					  [
						"▁européennes",
						-3.0
					  ],
					  [
						"mm",
						-3.0
					  ],
					  [
						"▁enable",
						-3.0
					  ],
					  [
						"▁external",
						-3.0
					  ],
					  [
						"▁unit",
						-3.0
					  ],
					  [
						"99",
						-3.0
					  ],
					  [
						"▁Art",
						-3.0
					  ],
					  [
						"▁fundamental",
						-3.0
					  ],
					  [
						"ek",
						-3.0
					  ],
					  [
						"▁British",
						-3.0
					  ],
					  [
						"▁success",
						-3.0
					  ],
					  [
						"▁says",
						-3.0
					  ],
					  [
						"://",
						-3.0
					  ],
					  [
						"▁expert",
						-3.0
					  ],
					  [
						"▁mêmes",
						-3.0
					  ],
					  [
						"▁financing",
						-3.0
					  ],
					  [
						"▁credit",
						-3.0
					  ],
					  [
						"▁filles",
						-3.0
					  ],
					  [
						"▁collective",
						-3.0
					  ],
					  [
						"▁combat",
						-3.0
					  ],
					  [
						"ère",
						-3.0
					  ],
					  [
						"▁loss",
						-3.0
					  ],
					  [
						"▁atteindre",
						-3.0
					  ],
					  [
						"▁devons",
						-3.0
					  ],
					  [
						"▁run",
						-3.0
					  ],
					  [
						"▁acts",
						-3.0
					  ],
					  [
						"▁Luxembourg",
						-3.0
					  ],
					  [
						"▁identify",
						-3.0
					  ],
					  [
						"▁Review",
						-3.0
					  ],
					  [
						"33",
						-3.0
					  ],
					  [
						"26",
						-3.0
					  ],
					  [
						"▁dix",
						-3.0
					  ],
					  [
						"▁associations",
						-3.0
					  ],
					  [
						"▁militaire",
						-3.0
					  ],
					  [
						"▁secretariat",
						-3.0
					  ],
					  [
						"assurance",
						-3.0
					  ],
					  [
						"SC",
						-3.0
					  ],
					  [
						"▁#",
						-3.0
					  ],
					  [
						"▁Canadiens",
						-3.0
					  ],
					  [
						"–",
						-3.0
					  ],
					  [
						"ish",
						-3.0
					  ],
					  [
						"▁autant",
						-3.0
					  ],
					  [
						"▁fer",
						-3.0
					  ],
					  [
						"▁peuples",
						-3.0
					  ],
					  [
						"▁38",
						-3.0
					  ],
					  [
						"36",
						-3.0
					  ],
					  [
						"▁intention",
						-3.0
					  ],
					  [
						".6",
						-3.0
					  ],
					  [
						"iste",
						-3.0
					  ],
					  [
						"▁clairement",
						-3.0
					  ],
					  [
						"▁committee",
						-3.0
					  ],
					  [
						"▁difficultés",
						-3.0
					  ],
					  [
						"▁sud",
						-3.0
					  ],
					  [
						"▁produced",
						-3.0
					  ],
					  [
						"oc",
						-3.0
					  ],
					  [
						"▁manque",
						-3.0
					  ],
					  [
						"occasion",
						-3.0
					  ],
					  [
						"▁humains",
						-3.0
					  ],
					  [
						"▁German",
						-3.0
					  ],
					  [
						"▁contient",
						-3.0
					  ],
					  [
						"▁Russian",
						-3.0
					  ],
					  [
						"▁weight",
						-3.0
					  ],
					  [
						"▁Ta",
						-3.0
					  ],
					  [
						"▁petites",
						-3.0
					  ],
					  [
						"▁ONU",
						-3.0
					  ],
					  [
						"▁puisse",
						-3.0
					  ],
					  [
						"▁genre",
						-3.0
					  ],
					  [
						"34",
						-3.0
					  ],
					  [
						"▁sélection",
						-3.0
					  ],
					  [
						"▁Per",
						-3.0
					  ],
					  [
						"▁led",
						-3.0
					  ],
					  [
						"▁easy",
						-3.0
					  ],
					  [
						"▁Portugal",
						-3.0
					  ],
					  [
						"▁won",
						-3.0
					  ],
					  [
						"▁euro",
						-3.0
					  ],
					  [
						"BAR",
						-3.0
					  ],
					  [
						"▁conception",
						-3.0
					  ],
					  [
						"abord",
						-3.0
					  ],
					  [
						"▁schools",
						-3.0
					  ],
					  [
						"▁connaissance",
						-3.0
					  ],
					  [
						"▁exploitation",
						-3.0
					  ],
					  [
						"▁dose",
						-3.0
					  ],
					  [
						"▁pleinement",
						-3.0
					  ],
					  [
						"▁traditional",
						-3.0
					  ],
					  [
						"▁Regional",
						-3.0
					  ],
					  [
						"▁engagements",
						-3.0
					  ],
					  [
						"▁Global",
						-3.0
					  ],
					  [
						"objectif",
						-3.0
					  ],
					  [
						"▁System",
						-3.0
					  ],
					  [
						"▁Are",
						-3.0
					  ],
					  [
						"41",
						-3.0
					  ],
					  [
						"08",
						-3.0
					  ],
					  [
						"▁detailed",
						-3.0
					  ],
					  [
						"▁séjour",
						-3.0
					  ],
					  [
						"▁video",
						-3.0
					  ],
					  [
						"▁maladie",
						-3.0
					  ],
					  [
						"▁Her",
						-3.0
					  ],
					  [
						"▁operating",
						-3.0
					  ],
					  [
						"▁pouvoirs",
						-3.0
					  ],
					  [
						"we",
						-3.0
					  ],
					  [
						"23",
						-3.0
					  ],
					  [
						"▁shown",
						-3.0
					  ],
					  [
						"▁communautaires",
						-3.0
					  ],
					  [
						"▁electronic",
						-3.0
					  ],
					  [
						"▁requires",
						-3.0
					  ],
					  [
						"▁réaliser",
						-3.0
					  ],
					  [
						"appui",
						-3.0
					  ],
					  [
						"▁véhicule",
						-3.0
					  ],
					  [
						"▁::",
						-3.0
					  ],
					  [
						"val",
						-3.0
					  ],
					  [
						"▁offices",
						-3.0
					  ],
					  [
						"▁régionaux",
						-3.0
					  ],
					  [
						"▁Russie",
						-3.0
					  ],
					  [
						"▁weapons",
						-3.0
					  ],
					  [
						"ov",
						-3.0
					  ],
					  [
						"▁ensuring",
						-3.0
					  ],
					  [
						"▁causes",
						-3.0
					  ],
					  [
						"▁nord",
						-3.0
					  ],
					  [
						"▁contribuer",
						-3.0
					  ],
					  [
						"▁substance",
						-3.0
					  ],
					  [
						"▁investissements",
						-3.0
					  ],
					  [
						"pa",
						-3.0
					  ],
					  [
						"▁perspective",
						-3.0
					  ],
					  [
						"ante",
						-3.0
					  ],
					  [
						"fi",
						-3.0
					  ],
					  [
						"équipe",
						-3.0
					  ],
					  [
						"▁sound",
						-3.0
					  ],
					  [
						"▁movement",
						-3.0
					  ],
					  [
						"▁facilitate",
						-3.0
					  ],
					  [
						"ran",
						-3.0
					  ],
					  [
						"▁quelle",
						-3.0
					  ],
					  [
						"▁tools",
						-3.0
					  ],
					  [
						"▁audit",
						-3.0
					  ],
					  [
						"▁veiller",
						-3.0
					  ],
					  [
						"▁annuel",
						-3.0
					  ],
					  [
						"▁développer",
						-3.0
					  ],
					  [
						"▁connaître",
						-3.0
					  ],
					  [
						"▁8.",
						-3.0
					  ],
					  [
						"05",
						-3.0
					  ],
					  [
						"dessous",
						-3.0
					  ],
					  [
						"▁skills",
						-3.0
					  ],
					  [
						"▁terrorisme",
						-3.0
					  ],
					  [
						"09",
						-3.0
					  ],
					  [
						"▁Grand",
						-3.0
					  ],
					  [
						"▁importantes",
						-3.0
					  ],
					  [
						"▁poursuivre",
						-3.0
					  ],
					  [
						"▁carry",
						-3.0
					  ],
					  [
						".9",
						-3.0
					  ],
					  [
						"▁priorities",
						-3.0
					  ],
					  [
						"▁Département",
						-3.0
					  ],
					  [
						"»,",
						-3.0
					  ],
					  [
						"▁Santé",
						-3.0
					  ],
					  [
						"▁©",
						-3.0
					  ],
					  [
						"▁association",
						-3.0
					  ],
					  [
						"▁intérêt",
						-3.0
					  ],
					  [
						"▁suivante",
						-3.0
					  ],
					  [
						"▁cependant",
						-3.0
					  ],
					  [
						"▁David",
						-3.0
					  ],
					  [
						"22",
						-3.0
					  ],
					  [
						"▁transmission",
						-3.0
					  ],
					  [
						"▁complète",
						-3.0
					  ],
					  [
						"▁Facebook",
						-3.0
					  ],
					  [
						"▁amendments",
						-3.0
					  ],
					  [
						"▁42",
						-3.0
					  ],
					  [
						"EU",
						-3.0
					  ],
					  [
						"▁achieved",
						-3.0
					  ],
					  [
						"▁publications",
						-3.0
					  ],
					  [
						"65",
						-3.0
					  ],
					  [
						"TM",
						-3.0
					  ],
					  [
						"▁voiture",
						-3.0
					  ],
					  [
						"43",
						-3.0
					  ],
					  [
						"▁résultat",
						-3.0
					  ],
					  [
						"▁machine",
						-3.0
					  ],
					  [
						"▁wide",
						-3.0
					  ],
					  [
						"▁comes",
						-3.0
					  ],
					  [
						"▁religion",
						-3.0
					  ],
					  [
						"▁conference",
						-3.0
					  ],
					  [
						"sur",
						-3.0
					  ],
					  [
						"ba",
						-3.0
					  ],
					  [
						"intérieur",
						-3.0
					  ],
					  [
						"▁classe",
						-3.0
					  ],
					  [
						"▁demand",
						-3.0
					  ],
					  [
						"▁youth",
						-3.0
					  ],
					  [
						"▁Governments",
						-3.0
					  ],
					  [
						"▁Toronto",
						-3.0
					  ],
					  [
						"▁idea",
						-3.0
					  ],
					  [
						"▁submit",
						-3.0
					  ],
					  [
						"▁selection",
						-3.0
					  ],
					  [
						"▁Although",
						-3.0
					  ],
					  [
						"▁principales",
						-3.0
					  ],
					  [
						"▁liens",
						-3.0
					  ],
					  [
						"▁measure",
						-3.0
					  ],
					  [
						"▁negotiations",
						-3.0
					  ],
					  [
						"▁IN",
						-3.0
					  ],
					  [
						"▁55",
						-3.0
					  ],
					  [
						"ong",
						-3.0
					  ],
					  [
						"▁participate",
						-3.0
					  ],
					  [
						"▁About",
						-3.0
					  ],
					  [
						"▁reach",
						-3.0
					  ],
					  [
						"▁relationship",
						-3.0
					  ],
					  [
						"▁Sous",
						-3.0
					  ],
					  [
						"▁Spain",
						-3.0
					  ],
					  [
						"▁Euro",
						-3.0
					  ],
					  [
						"ix",
						-3.0
					  ],
					  [
						"▁44",
						-3.0
					  ],
					  [
						"▁dossier",
						-3.0
					  ],
					  [
						"▁add",
						-3.0
					  ],
					  [
						"▁cœur",
						-3.0
					  ],
					  [
						"▁proceedings",
						-3.0
					  ],
					  [
						"▁establishing",
						-3.0
					  ],
					  [
						"▁dés",
						-3.0
					  ],
					  [
						"▁semaines",
						-3.0
					  ],
					  [
						"DE",
						-3.0
					  ],
					  [
						"▁Guide",
						-3.0
					  ],
					  [
						"▁sale",
						-3.0
					  ],
					  [
						"▁militaires",
						-3.0
					  ],
					  [
						"▁drug",
						-3.0
					  ],
					  [
						"77",
						-3.0
					  ],
					  [
						"histoire",
						-3.0
					  ],
					  [
						"▁Lord",
						-3.0
					  ],
					  [
						"▁vehicles",
						-3.0
					  ],
					  [
						"▁démocratique",
						-3.0
					  ],
					  [
						"▁Who",
						-3.0
					  ],
					  [
						"▁fr",
						-3.0
					  ],
					  [
						"ONU",
						-3.0
					  ],
					  [
						"▁espèces",
						-3.0
					  ],
					  [
						"ob",
						-3.0
					  ],
					  [
						"▁commentaires",
						-3.0
					  ],
					  [
						"▁enquête",
						-3.0
					  ],
					  [
						"▁specified",
						-3.0
					  ],
					  [
						"▁Just",
						-3.0
					  ],
					  [
						"▁entry",
						-3.0
					  ],
					  [
						"▁functions",
						-3.0
					  ],
					  [
						"59",
						-3.0
					  ],
					  [
						"expérience",
						-3.0
					  ],
					  [
						"mar",
						-3.0
					  ],
					  [
						"▁principalement",
						-3.0
					  ],
					  [
						"92",
						-3.0
					  ],
					  [
						"▁devez",
						-3.0
					  ],
					  [
						"2.",
						-3.0
					  ],
					  [
						"▁Ã",
						-3.0
					  ],
					  [
						"▁traités",
						-3.0
					  ],
					  [
						"▁tests",
						-3.0
					  ],
					  [
						"▁compared",
						-3.0
					  ],
					  [
						"07",
						-3.0
					  ],
					  [
						"▁extra",
						-3.0
					  ],
					  [
						"▁vient",
						-3.0
					  ],
					  [
						"ster",
						-3.0
					  ],
					  [
						"gc",
						-3.0
					  ],
					  [
						"▁Project",
						-3.0
					  ],
					  [
						"46",
						-3.0
					  ],
					  [
						"ide",
						-3.0
					  ],
					  [
						"(2)",
						-3.0
					  ],
					  [
						"▁CO",
						-3.0
					  ],
					  [
						"▁music",
						-3.0
					  ],
					  [
						"▁presence",
						-3.0
					  ],
					  [
						"▁Journal",
						-3.0
					  ],
					  [
						"▁destruction",
						-3.0
					  ],
					  [
						"▁enter",
						-3.0
					  ],
					  [
						"▁situé",
						-3.0
					  ],
					  [
						"▁resolutions",
						-3.0
					  ],
					  [
						"ja",
						-3.0
					  ],
					  [
						"informations",
						-3.0
					  ],
					  [
						"▁eau",
						-3.0
					  ],
					  [
						"▁bord",
						-3.0
					  ],
					  [
						"▁People",
						-3.0
					  ],
					  [
						"ens",
						-3.0
					  ],
					  [
						"88",
						-3.0
					  ],
					  [
						"ize",
						-3.0
					  ],
					  [
						"▁function",
						-3.0
					  ],
					  [
						"▁statements",
						-3.0
					  ],
					  [
						"▁consommateurs",
						-3.0
					  ],
					  [
						"▁Pre",
						-3.0
					  ],
					  [
						"▁aimed",
						-3.0
					  ],
					  [
						"▁Arab",
						-3.0
					  ],
					  [
						"89",
						-3.0
					  ],
					  [
						"ification",
						-3.0
					  ],
					  [
						"▁try",
						-3.0
					  ],
					  [
						"▁consensus",
						-3.0
					  ],
					  [
						"▁contains",
						-3.0
					  ],
					  [
						"▁visite",
						-3.0
					  ],
					  [
						"38",
						-3.0
					  ],
					  [
						"▁responsabilités",
						-3.0
					  ],
					  [
						"▁Dé",
						-3.0
					  ],
					  [
						"▁assist",
						-3.0
					  ],
					  [
						"▁siècle",
						-3.0
					  ],
					  [
						"▁Rome",
						-3.0
					  ],
					  [
						"▁conséquences",
						-3.0
					  ],
					  [
						"▁concentration",
						-3.0
					  ],
					  [
						"IP",
						-3.0
					  ],
					  [
						"▁Transport",
						-3.0
					  ],
					  [
						"▁43",
						-3.0
					  ],
					  [
						"▁fine",
						-3.0
					  ],
					  [
						"▁scope",
						-3.0
					  ],
					  [
						"po",
						-3.0
					  ],
					  [
						"▁build",
						-3.0
					  ],
					  [
						"gen",
						-3.0
					  ],
					  [
						"▁privée",
						-3.0
					  ],
					  [
						"ium",
						-3.0
					  ],
					  [
						"yl",
						-3.0
					  ],
					  [
						"▁lien",
						-3.0
					  ],
					  [
						"▁voix",
						-3.0
					  ],
					  [
						"▁sexual",
						-3.0
					  ],
					  [
						"▁investigation",
						-3.0
					  ],
					  [
						"iser",
						-3.0
					  ],
					  [
						"▁serve",
						-3.0
					  ],
					  [
						"▁class",
						-3.0
					  ],
					  [
						"▁notice",
						-3.0
					  ],
					  [
						"▁units",
						-3.0
					  ],
					  [
						"▁blood",
						-3.0
					  ],
					  [
						"▁hold",
						-3.0
					  ],
					  [
						"▁Asia",
						-3.0
					  ],
					  [
						"▁circulation",
						-3.0
					  ],
					  [
						"▁granted",
						-3.0
					  ],
					  [
						"▁alimentaire",
						-3.0
					  ],
					  [
						"▁intervention",
						-3.0
					  ],
					  [
						"▁Meeting",
						-3.0
					  ],
					  [
						"▁pressure",
						-3.0
					  ],
					  [
						"▁loin",
						-3.0
					  ],
					  [
						"▁DU",
						-3.0
					  ],
					  [
						"▁Haut",
						-3.0
					  ],
					  [
						"▁vidéo",
						-3.0
					  ],
					  [
						"▁organized",
						-3.0
					  ],
					  [
						"▁Mac",
						-3.0
					  ],
					  [
						"▁traite",
						-3.0
					  ],
					  [
						"▁sanctions",
						-3.0
					  ],
					  [
						"int",
						-3.0
					  ],
					  [
						"▁scientific",
						-3.0
					  ],
					  [
						"▁sol",
						-3.0
					  ],
					  [
						"▁introduced",
						-3.0
					  ],
					  [
						"▁1992",
						-3.0
					  ],
					  [
						"▁rooms",
						-3.0
					  ],
					  [
						"▁bureaux",
						-3.0
					  ],
					  [
						"▁tribunal",
						-3.0
					  ],
					  [
						"▁Autres",
						-3.0
					  ],
					  [
						"▁VIH",
						-3.0
					  ],
					  [
						"▁shows",
						-3.0
					  ],
					  [
						"ateur",
						-3.0
					  ],
					  [
						"▁enhance",
						-3.0
					  ],
					  [
						"▁événements",
						-3.0
					  ],
					  [
						"▁charges",
						-3.0
					  ],
					  [
						"www",
						-3.0
					  ],
					  [
						"▁restrictions",
						-3.0
					  ],
					  [
						"▁montre",
						-3.0
					  ],
					  [
						"En",
						-3.0
					  ],
					  [
						"aires",
						-3.0
					  ],
					  [
						"▁pied",
						-3.0
					  ],
					  [
						"▁professionnels",
						-3.0
					  ],
					  [
						"▁utilisateurs",
						-3.0
					  ],
					  [
						"▁rest",
						-3.0
					  ],
					  [
						"off",
						-3.0
					  ],
					  [
						"▁beautiful",
						-3.0
					  ],
					  [
						"▁compensation",
						-3.0
					  ],
					  [
						"▁mécanisme",
						-3.0
					  ],
					  [
						"▁terres",
						-3.0
					  ],
					  [
						"▁mot",
						-3.0
					  ],
					  [
						"▁news",
						-3.0
					  ],
					  [
						"▁wanted",
						-3.0
					  ],
					  [
						"▁although",
						-3.0
					  ],
					  [
						"▁Elles",
						-3.0
					  ],
					  [
						"▁heard",
						-3.0
					  ],
					  [
						"▁promoting",
						-3.0
					  ],
					  [
						"ber",
						-3.0
					  ],
					  [
						"▁medium",
						-3.0
					  ],
					  [
						"ET",
						-3.0
					  ],
					  [
						"less",
						-3.0
					  ],
					  [
						"▁generally",
						-3.0
					  ],
					  [
						"▁trouvé",
						-3.0
					  ],
					  [
						"ables",
						-3.0
					  ],
					  [
						"▁obstacles",
						-3.0
					  ],
					  [
						"78",
						-3.0
					  ],
					  [
						"▁ability",
						-3.0
					  ],
					  [
						"▁modern",
						-3.0
					  ],
					  [
						"▁seraient",
						-3.0
					  ],
					  [
						"▁Room",
						-3.0
					  ],
					  [
						"67",
						-3.0
					  ],
					  [
						"▁mentioned",
						-3.0
					  ],
					  [
						"29",
						-3.0
					  ],
					  [
						"▁Mont",
						-3.0
					  ],
					  [
						"▁followed",
						-3.0
					  ],
					  [
						"▁Port",
						-3.0
					  ],
					  [
						"▁judiciaire",
						-3.0
					  ],
					  [
						"▁Financial",
						-3.0
					  ],
					  [
						"si",
						-3.0
					  ],
					  [
						"▁humanitaire",
						-3.0
					  ],
					  [
						"▁though",
						-3.0
					  ],
					  [
						"▁appliquer",
						-3.0
					  ],
					  [
						"▁partenariat",
						-3.0
					  ],
					  [
						"▁strengthening",
						-3.0
					  ],
					  [
						"rait",
						-3.0
					  ],
					  [
						"ron",
						-3.0
					  ],
					  [
						"all",
						-3.0
					  ],
					  [
						"▁constituent",
						-3.0
					  ],
					  [
						"serv",
						-3.0
					  ],
					  [
						"▁partnership",
						-3.0
					  ],
					  [
						"▁export",
						-3.0
					  ],
					  [
						"▁priorité",
						-3.0
					  ],
					  [
						"▁cuisine",
						-3.0
					  ],
					  [
						"▁became",
						-3.0
					  ],
					  [
						"▁équipe",
						-3.0
					  ],
					  [
						"▁1999,",
						-3.0
					  ],
					  [
						"▁Vice",
						-3.0
					  ],
					  [
						"▁pollution",
						-3.0
					  ],
					  [
						"▁century",
						-3.0
					  ],
					  [
						"▁Ex",
						-3.0
					  ],
					  [
						"▁alternative",
						-3.0
					  ],
					  [
						"dis",
						-3.0
					  ],
					  [
						"ose",
						-3.0
					  ],
					  [
						"▁signed",
						-3.0
					  ],
					  [
						"▁adequate",
						-3.0
					  ],
					  [
						"▁CE",
						-3.0
					  ],
					  [
						"▁father",
						-3.0
					  ],
					  [
						"ii",
						-3.0
					  ],
					  [
						"can",
						-3.0
					  ],
					  [
						"58",
						-3.0
					  ],
					  [
						"▁applicables",
						-3.0
					  ],
					  [
						"▁conséquence",
						-3.0
					  ],
					  [
						"▁maintain",
						-3.0
					  ],
					  [
						"▁languages",
						-3.0
					  ],
					  [
						"▁Business",
						-3.0
					  ],
					  [
						"▁allowed",
						-3.0
					  ],
					  [
						"ho",
						-3.0
					  ],
					  [
						"▁recognized",
						-3.0
					  ],
					  [
						"▁destination",
						-3.0
					  ],
					  [
						"▁grave",
						-3.0
					  ],
					  [
						"▁Enfin",
						-3.0
					  ],
					  [
						"▁Come",
						-3.0
					  ],
					  [
						"▁établissement",
						-3.0
					  ],
					  [
						"▁examiné",
						-3.0
					  ],
					  [
						"▁6,",
						-3.0
					  ],
					  [
						"▁provenant",
						-3.0
					  ],
					  [
						"▁weeks",
						-3.0
					  ],
					  [
						"▁dated",
						-3.0
					  ],
					  [
						"▁word",
						-3.0
					  ],
					  [
						"▁preparation",
						-3.0
					  ],
					  [
						"63",
						-3.0
					  ],
					  [
						"▁publié",
						-3.0
					  ],
					  [
						"76",
						-3.0
					  ],
					  [
						"▁mother",
						-3.0
					  ],
					  [
						"▁safe",
						-3.0
					  ],
					  [
						"ver",
						-3.0
					  ],
					  [
						"▁rendu",
						-3.0
					  ],
					  [
						"ino",
						-3.0
					  ],
					  [
						"▁Data",
						-3.0
					  ],
					  [
						"▁Number",
						-3.0
					  ],
					  [
						"▁armed",
						-3.0
					  ],
					  [
						"EL",
						-3.0
					  ],
					  [
						"▁Children",
						-3.0
					  ],
					  [
						"▁imp",
						-3.0
					  ],
					  [
						"tion",
						-3.0
					  ],
					  [
						"93",
						-3.0
					  ],
					  [
						"ATION",
						-3.0
					  ],
					  [
						"▁49",
						-3.0
					  ],
					  [
						"▁rendement",
						-3.0
					  ],
					  [
						"▁41",
						-3.0
					  ],
					  [
						"▁catégories",
						-3.0
					  ],
					  [
						"▁Congo",
						-3.0
					  ],
					  [
						"▁souligné",
						-3.0
					  ],
					  [
						"▁annex",
						-3.0
					  ],
					  [
						"ung",
						-3.0
					  ],
					  [
						"▁cancer",
						-3.0
					  ],
					  [
						"▁respecter",
						-3.0
					  ],
					  [
						"ger",
						-3.0
					  ],
					  [
						"Agence",
						-3.0
					  ],
					  [
						"▁fort",
						-3.0
					  ],
					  [
						"▁goals",
						-3.0
					  ],
					  [
						"▁reduced",
						-3.0
					  ],
					  [
						"▁board",
						-3.0
					  ],
					  [
						"▁gros",
						-3.0
					  ],
					  [
						"▁volonté",
						-3.0
					  ],
					  [
						"9",
						-3.0
					  ],
					  [
						"▁préparation",
						-3.0
					  ],
					  [
						"▁mises",
						-3.0
					  ],
					  [
						"▁lit",
						-3.0
					  ],
					  [
						"▁built",
						-3.0
					  ],
					  [
						"▁2005.",
						-3.0
					  ],
					  [
						"old",
						-3.0
					  ],
					  [
						"85",
						-3.0
					  ],
					  [
						"▁diffusion",
						-3.0
					  ],
					  [
						"▁(3)",
						-3.0
					  ],
					  [
						"▁started",
						-3.0
					  ],
					  [
						"▁lives",
						-3.0
					  ],
					  [
						"▁gave",
						-3.0
					  ],
					  [
						"▁VI",
						-3.0
					  ],
					  [
						"▁aim",
						-3.0
					  ],
					  [
						"chi",
						-3.0
					  ],
					  [
						"▁juge",
						-3.0
					  ],
					  [
						"▁critical",
						-3.0
					  ],
					  [
						"▁maladies",
						-3.0
					  ],
					  [
						"▁category",
						-3.0
					  ],
					  [
						"▁insurance",
						-3.0
					  ],
					  [
						"▁étudiants",
						-3.0
					  ],
					  [
						"3,",
						-3.0
					  ],
					  [
						"▁Na",
						-3.0
					  ],
					  [
						"▁actually",
						-3.0
					  ],
					  [
						"▁relativement",
						-3.0
					  ],
					  [
						"▁commencé",
						-3.0
					  ],
					  [
						"▁autour",
						-3.0
					  ],
					  [
						"va",
						-3.0
					  ],
					  [
						"▁disponibilité",
						-3.0
					  ],
					  [
						"▁longue",
						-3.0
					  ],
					  [
						"égalité",
						-3.0
					  ],
					  [
						"▁générales",
						-3.0
					  ],
					  [
						"▁récemment",
						-3.0
					  ],
					  [
						"68",
						-3.0
					  ],
					  [
						"▁régionale",
						-3.0
					  ],
					  [
						"▁déchets",
						-3.0
					  ],
					  [
						"▁Chaque",
						-3.0
					  ],
					  [
						"▁choice",
						-3.0
					  ],
					  [
						"▁physique",
						-3.0
					  ],
					  [
						"ham",
						-3.0
					  ],
					  [
						"▁devait",
						-3.0
					  ],
					  [
						"▁9.",
						-3.0
					  ],
					  [
						"▁recevoir",
						-3.0
					  ],
					  [
						"her",
						-3.0
					  ],
					  [
						"▁essentiel",
						-3.0
					  ],
					  [
						"▁faite",
						-3.0
					  ],
					  [
						"▁leading",
						-3.0
					  ],
					  [
						"▁girls",
						-3.0
					  ],
					  [
						"AR",
						-3.0
					  ],
					  [
						"▁milliards",
						-3.0
					  ],
					  [
						"▁innovation",
						-3.0
					  ],
					  [
						"▁CD",
						-3.0
					  ],
					  [
						"▁origin",
						-3.0
					  ],
					  [
						"ns",
						-3.0
					  ],
					  [
						"▁2009,",
						-3.0
					  ],
					  [
						"ial",
						-3.0
					  ],
					  [
						"▁prévue",
						-3.0
					  ],
					  [
						"▁learn",
						-3.0
					  ],
					  [
						"▁animaux",
						-3.0
					  ],
					  [
						"▁quelqu",
						-3.0
					  ],
					  [
						"▁claim",
						-3.0
					  ],
					  [
						"▁limit",
						-3.0
					  ],
					  [
						"ient",
						-3.0
					  ],
					  [
						"▁send",
						-3.0
					  ],
					  [
						"▁compter",
						-3.0
					  ],
					  [
						"tes",
						-3.0
					  ],
					  [
						"▁voulez",
						-3.0
					  ],
					  [
						"▁classification",
						-3.0
					  ],
					  [
						"▁waste",
						-3.0
					  ],
					  [
						"▁patient",
						-3.0
					  ],
					  [
						"▁forte",
						-3.0
					  ],
					  [
						"69",
						-3.0
					  ],
					  [
						"▁Dis",
						-3.0
					  ],
					  [
						"64",
						-3.0
					  ],
					  [
						"▁method",
						-3.0
					  ],
					  [
						"ip",
						-3.0
					  ],
					  [
						"▁Articles",
						-3.0
					  ],
					  [
						"▁revenus",
						-3.0
					  ],
					  [
						"▁candidats",
						-3.0
					  ],
					  [
						"▁favoriser",
						-3.0
					  ],
					  [
						"▁Com",
						-3.0
					  ],
					  [
						"adoption",
						-3.0
					  ],
					  [
						"▁permettent",
						-3.0
					  ],
					  [
						"▁campagne",
						-3.0
					  ],
					  [
						"▁eaux",
						-3.0
					  ],
					  [
						"56",
						-3.0
					  ],
					  [
						"▁undertaken",
						-3.0
					  ],
					  [
						"▁successful",
						-3.0
					  ],
					  [
						"▁Google",
						-3.0
					  ],
					  [
						"▁dimension",
						-3.0
					  ],
					  [
						"▁saw",
						-3.0
					  ],
					  [
						"▁recently",
						-3.0
					  ],
					  [
						"▁modalités",
						-3.0
					  ],
					  [
						"▁registered",
						-3.0
					  ],
					  [
						"investissement",
						-3.0
					  ],
					  [
						"▁Mi",
						-3.0
					  ],
					  [
						"▁estimated",
						-3.0
					  ],
					  [
						"▁offered",
						-3.0
					  ],
					  [
						"▁risks",
						-3.0
					  ],
					  [
						"▁reached",
						-3.0
					  ],
					  [
						"né",
						-3.0
					  ],
					  [
						"ible",
						-3.0
					  ],
					  [
						"pt",
						-3.0
					  ],
					  [
						"▁approximately",
						-3.0
					  ],
					  [
						"▁soutenir",
						-3.0
					  ],
					  [
						"▁Quoi",
						-3.0
					  ],
					  [
						"▁dois",
						-3.0
					  ],
					  [
						"▁Food",
						-3.0
					  ],
					  [
						"avenir",
						-3.0
					  ],
					  [
						"▁doute",
						-3.0
					  ],
					  [
						"51",
						-3.0
					  ],
					  [
						"▁agricoles",
						-3.0
					  ],
					  [
						"▁déclarations",
						-3.0
					  ],
					  [
						"▁hors",
						-3.0
					  ],
					  [
						"▁2006.",
						-3.0
					  ],
					  [
						"▁fille",
						-3.0
					  ],
					  [
						"▁musique",
						-3.0
					  ],
					  [
						"▁expression",
						-3.0
					  ],
					  [
						"ments",
						-3.0
					  ],
					  [
						"▁advice",
						-3.0
					  ],
					  [
						"▁assets",
						-3.0
					  ],
					  [
						"▁white",
						-3.0
					  ],
					  [
						"▁sexes",
						-3.0
					  ],
					  [
						"04",
						-3.0
					  ],
					  [
						"AT",
						-3.0
					  ],
					  [
						"▁passage",
						-3.0
					  ],
					  [
						"▁feu",
						-3.0
					  ],
					  [
						"▁check",
						-3.0
					  ],
					  [
						"▁scientifiques",
						-3.0
					  ],
					  [
						"▁leadership",
						-3.0
					  ],
					  [
						"▁statistics",
						-3.0
					  ],
					  [
						"▁War",
						-3.0
					  ],
					  [
						"▁officials",
						-3.0
					  ],
					  [
						"▁accessible",
						-3.0
					  ],
					  [
						"▁improving",
						-3.0
					  ],
					  [
						"▁learning",
						-3.0
					  ],
					  [
						"ities",
						-3.0
					  ],
					  [
						"▁profit",
						-3.0
					  ],
					  [
						"▁sense",
						-3.0
					  ],
					  [
						"▁7,",
						-3.0
					  ],
					  [
						"▁fight",
						-3.0
					  ],
					  [
						"▁Chapter",
						-3.0
					  ],
					  [
						"tel",
						-3.0
					  ],
					  [
						"▁town",
						-3.0
					  ],
					  [
						"▁governments",
						-3.0
					  ],
					  [
						"▁simplement",
						-3.0
					  ],
					  [
						"02",
						-3.0
					  ],
					  [
						"03",
						-3.0
					  ],
					  [
						"▁woman",
						-3.0
					  ],
					  [
						"▁pénale",
						-3.0
					  ],
					  [
						"▁recherches",
						-3.0
					  ],
					  [
						"▁étrangères",
						-3.0
					  ],
					  [
						"▁médicaments",
						-3.0
					  ],
					  [
						"▁consistent",
						-3.0
					  ],
					  [
						"▁complex",
						-3.0
					  ],
					  [
						"▁quantité",
						-3.0
					  ],
					  [
						"▁étrangers",
						-3.0
					  ],
					  [
						"▁Amérique",
						-3.0
					  ],
					  [
						"▁friend",
						-3.0
					  ],
					  [
						"▁complet",
						-3.0
					  ],
					  [
						"▁Day",
						-3.0
					  ],
					  [
						"ze",
						-3.0
					  ],
					  [
						"▁servir",
						-3.0
					  ],
					  [
						"▁longtemps",
						-3.0
					  ],
					  [
						"▁presque",
						-3.0
					  ],
					  [
						"▁Ben",
						-3.0
					  ],
					  [
						"▁ready",
						-3.0
					  ],
					  [
						"▁entire",
						-3.0
					  ],
					  [
						"▁Check",
						-3.0
					  ],
					  [
						"▁View",
						-3.0
					  ],
					  [
						"▁premiers",
						-3.0
					  ],
					  [
						"▁agriculture",
						-3.0
					  ],
					  [
						"57",
						-3.0
					  ],
					  [
						"▁modèles",
						-3.0
					  ],
					  [
						"▁élections",
						-3.0
					  ],
					  [
						"▁attend",
						-3.0
					  ],
					  [
						"▁fiscal",
						-3.0
					  ],
					  [
						"▁signifie",
						-3.0
					  ],
					  [
						"▁friends",
						-3.0
					  ],
					  [
						"▁Directeur",
						-3.0
					  ],
					  [
						"▁peoples",
						-3.0
					  ],
					  [
						"espace",
						-3.0
					  ],
					  [
						"▁plant",
						-3.0
					  ],
					  [
						"▁Good",
						-3.0
					  ],
					  [
						"▁Read",
						-3.0
					  ],
					  [
						"▁regulatory",
						-3.0
					  ],
					  [
						"▁85",
						-3.0
					  ],
					  [
						"▁allows",
						-3.0
					  ],
					  [
						"âge",
						-3.0
					  ],
					  [
						"▁agent",
						-3.0
					  ],
					  [
						"▁avoid",
						-3.0
					  ],
					  [
						"iques",
						-3.0
					  ],
					  [
						"▁efficiency",
						-3.0
					  ],
					  [
						"▁claims",
						-3.0
					  ],
					  [
						"▁immediately",
						-3.0
					  ],
					  [
						"▁trafic",
						-3.0
					  ],
					  [
						"▁Où",
						-3.0
					  ],
					  [
						"▁definition",
						-3.0
					  ],
					  [
						"▁sport",
						-3.0
					  ],
					  [
						"▁Aboriginal",
						-3.0
					  ],
					  [
						"▁danger",
						-3.0
					  ],
					  [
						"▁migrants",
						-3.0
					  ],
					  [
						"▁Recherche",
						-3.0
					  ],
					  [
						"▁porter",
						-3.0
					  ],
					  [
						"▁tandis",
						-3.0
					  ],
					  [
						"▁sections",
						-3.0
					  ],
					  [
						"▁daily",
						-3.0
					  ],
					  [
						"▁whom",
						-3.0
					  ],
					  [
						"▁limite",
						-3.0
					  ],
					  [
						"▁coup",
						-3.0
					  ],
					  [
						"▁Su",
						-3.0
					  ],
					  [
						"▁Product",
						-3.0
					  ],
					  [
						"▁Ca",
						-3.0
					  ],
					  [
						"related",
						-3.0
					  ],
					  [
						"▁press",
						-3.0
					  ],
					  [
						"▁Advisory",
						-3.0
					  ],
					  [
						"á",
						-3.0
					  ],
					  [
						"▁competent",
						-3.0
					  ],
					  [
						"▁égalité",
						-3.0
					  ],
					  [
						"▁notification",
						-3.0
					  ],
					  [
						"▁release",
						-3.0
					  ],
					  [
						"▁humaine",
						-3.0
					  ],
					  [
						"▁traiter",
						-3.0
					  ],
					  [
						"▁Toutes",
						-3.0
					  ],
					  [
						"▁instructions",
						-3.0
					  ],
					  [
						"▁commande",
						-3.0
					  ],
					  [
						"▁transactions",
						-3.0
					  ],
					  [
						"▁utile",
						-3.0
					  ],
					  [
						"OS",
						-3.0
					  ],
					  [
						"▁uses",
						-3.0
					  ],
					  [
						"▁stakeholders",
						-3.0
					  ],
					  [
						"▁setting",
						-3.0
					  ],
					  [
						"▁délégations",
						-3.0
					  ],
					  [
						"▁features",
						-3.0
					  ],
					  [
						"▁46",
						-3.0
					  ],
					  [
						"tique",
						-3.0
					  ],
					  [
						"▁disease",
						-3.0
					  ],
					  [
						"▁calls",
						-3.0
					  ],
					  [
						"bar",
						-3.0
					  ],
					  [
						"▁duty",
						-3.0
					  ],
					  [
						"▁livre",
						-3.0
					  ],
					  [
						"86",
						-3.0
					  ],
					  [
						"bi",
						-3.0
					  ],
					  [
						"ID",
						-3.0
					  ],
					  [
						"▁equality",
						-3.0
					  ],
					  [
						"▁listed",
						-3.0
					  ],
					  [
						"ps",
						-3.0
					  ],
					  [
						"Afrique",
						-3.0
					  ],
					  [
						"▁ten",
						-3.0
					  ],
					  [
						"▁téléphone",
						-3.0
					  ],
					  [
						"▁Bible",
						-3.0
					  ],
					  [
						"▁sufficient",
						-3.0
					  ],
					  [
						"▁paragraphes",
						-3.0
					  ],
					  [
						"ue",
						-3.0
					  ],
					  [
						"▁désarmement",
						-3.0
					  ],
					  [
						"▁regulation",
						-3.0
					  ],
					  [
						"42",
						-3.0
					  ],
					  [
						"▁limites",
						-3.0
					  ],
					  [
						"▁placed",
						-3.0
					  ],
					  [
						"▁invited",
						-3.0
					  ],
					  [
						"responsibilities",
						-3.0
					  ],
					  [
						"▁interested",
						-3.0
					  ],
					  [
						"▁150",
						-3.0
					  ],
					  [
						"▁existence",
						-3.0
					  ],
					  [
						"AP",
						-3.0
					  ],
					  [
						"▁beyond",
						-3.0
					  ],
					  [
						"▁Direction",
						-3.0
					  ],
					  [
						"▁restaurant",
						-3.0
					  ],
					  [
						"▁separate",
						-3.0
					  ],
					  [
						"▁trust",
						-3.0
					  ],
					  [
						"sol",
						-3.0
					  ],
					  [
						"lic",
						-3.0
					  ],
					  [
						"ning",
						-3.0
					  ],
					  [
						"▁portée",
						-3.0
					  ],
					  [
						"▁computer",
						-3.0
					  ],
					  [
						"▁resource",
						-3.0
					  ],
					  [
						"▁Such",
						-3.0
					  ],
					  [
						"▁recommandation",
						-3.0
					  ],
					  [
						"▁vis",
						-3.0
					  ],
					  [
						"▁poor",
						-3.0
					  ],
					  [
						"▁impossible",
						-3.0
					  ],
					  [
						"urgence",
						-3.0
					  ],
					  [
						"▁corruption",
						-3.0
					  ],
					  [
						"ienne",
						-3.0
					  ],
					  [
						"▁éviter",
						-3.0
					  ],
					  [
						"form",
						-3.0
					  ],
					  [
						"▁obtained",
						-3.0
					  ],
					  [
						"▁hear",
						-3.0
					  ],
					  [
						"étais",
						-3.0
					  ],
					  [
						"▁2007.",
						-3.0
					  ],
					  [
						"▁Gu",
						-3.0
					  ],
					  [
						"▁nation",
						-3.0
					  ],
					  [
						"istes",
						-3.0
					  ],
					  [
						"▁www",
						-3.0
					  ],
					  [
						"dy",
						-3.0
					  ],
					  [
						"▁fish",
						-3.0
					  ],
					  [
						"heure",
						-3.0
					  ],
					  [
						"▁improved",
						-3.0
					  ],
					  [
						"▁Open",
						-3.0
					  ],
					  [
						"▁selected",
						-3.0
					  ],
					  [
						"▁parfois",
						-3.0
					  ],
					  [
						"intégration",
						-3.0
					  ],
					  [
						"▁scientifique",
						-3.0
					  ],
					  [
						"▁excellent",
						-3.0
					  ],
					  [
						"avais",
						-3.0
					  ],
					  [
						"▁indique",
						-3.0
					  ],
					  [
						"▁choose",
						-3.0
					  ],
					  [
						"▁Chambre",
						-3.0
					  ],
					  [
						"▁late",
						-3.0
					  ],
					  [
						"▁compétence",
						-3.0
					  ],
					  [
						"▁Charter",
						-3.0
					  ],
					  [
						"avait",
						-3.0
					  ],
					  [
						"▁Japan",
						-3.0
					  ],
					  [
						"▁résolutions",
						-3.0
					  ],
					  [
						"▁utilisées",
						-3.0
					  ],
					  [
						"-5",
						-3.0
					  ],
					  [
						"▁Sub",
						-3.0
					  ],
					  [
						"▁évaluer",
						-3.0
					  ],
					  [
						"▁conventions",
						-3.0
					  ],
					  [
						"▁47",
						-3.0
					  ],
					  [
						"▁interventions",
						-3.0
					  ],
					  [
						"▁2010,",
						-3.0
					  ],
					  [
						"▁fil",
						-3.0
					  ],
					  [
						"▁sept",
						-3.0
					  ],
					  [
						"over",
						-3.0
					  ],
					  [
						"▁alone",
						-3.0
					  ],
					  [
						"level",
						-3.0
					  ],
					  [
						"ator",
						-3.0
					  ],
					  [
						"▁Red",
						-3.0
					  ],
					  [
						"▁européens",
						-3.0
					  ],
					  [
						"▁outils",
						-3.0
					  ],
					  [
						"▁journée",
						-3.0
					  ],
					  [
						"▁expertise",
						-3.0
					  ],
					  [
						"▁Ver",
						-3.0
					  ],
					  [
						"▁immédiatement",
						-3.0
					  ],
					  [
						"▁Afghanistan",
						-3.0
					  ],
					  [
						"▁black",
						-3.0
					  ],
					  [
						"54",
						-3.0
					  ],
					  [
						"▁Foreign",
						-3.0
					  ],
					  [
						"▁Palestinian",
						-3.0
					  ],
					  [
						"▁facile",
						-3.0
					  ],
					  [
						"▁Park",
						-3.0
					  ],
					  [
						"▁particulière",
						-3.0
					  ],
					  [
						"▁survey",
						-3.0
					  ],
					  [
						"EM",
						-3.0
					  ],
					  [
						"▁rend",
						-3.0
					  ],
					  [
						"▁transformation",
						-3.0
					  ],
					  [
						"▁goal",
						-3.0
					  ],
					  [
						"fa",
						-3.0
					  ],
					  [
						"rd",
						-3.0
					  ],
					  [
						"72",
						-3.0
					  ],
					  [
						"▁10.",
						-3.0
					  ],
					  [
						"▁villes",
						-3.0
					  ],
					  [
						"▁registration",
						-3.0
					  ],
					  [
						"▁department",
						-3.0
					  ],
					  [
						"▁fall",
						-3.0
					  ],
					  [
						"▁answer",
						-3.0
					  ],
					  [
						"▁maintenir",
						-3.0
					  ],
					  [
						"%",
						-3.0
					  ],
					  [
						"enquête",
						-3.0
					  ],
					  [
						"▁principale",
						-3.0
					  ],
					  [
						"▁apporter",
						-3.0
					  ],
					  [
						"dire",
						-3.0
					  ],
					  [
						"▁Permanent",
						-3.0
					  ],
					  [
						"▁détails",
						-3.0
					  ],
					  [
						"▁doesn",
						-3.0
					  ],
					  [
						"▁devenir",
						-3.0
					  ],
					  [
						"UN",
						-3.0
					  ],
					  [
						"ke",
						-3.0
					  ],
					  [
						"▁Ko",
						-3.0
					  ],
					  [
						"tre",
						-3.0
					  ],
					  [
						"▁pression",
						-3.0
					  ],
					  [
						"▁indigenous",
						-3.0
					  ],
					  [
						"▁pouvons",
						-3.0
					  ],
					  [
						"mes",
						-3.0
					  ],
					  [
						"▁commerciales",
						-3.0
					  ],
					  [
						"way",
						-3.0
					  ],
					  [
						"ign",
						-3.0
					  ],
					  [
						"▁règlements",
						-3.0
					  ],
					  [
						"▁2004.",
						-3.0
					  ],
					  [
						"▁percent",
						-3.0
					  ],
					  [
						"▁efficaces",
						-3.0
					  ],
					  [
						"▁practical",
						-3.0
					  ],
					  [
						"▁réponses",
						-3.0
					  ],
					  [
						"▁pourra",
						-3.0
					  ],
					  [
						"lé",
						-3.0
					  ],
					  [
						"amélioration",
						-3.0
					  ],
					  [
						"▁components",
						-3.0
					  ],
					  [
						"▁naturelles",
						-3.0
					  ],
					  [
						"▁prêt",
						-3.0
					  ],
					  [
						"▁variety",
						-3.0
					  ],
					  [
						"▁Administration",
						-3.0
					  ],
					  [
						"▁ouvert",
						-3.0
					  ],
					  [
						"▁77",
						-3.0
					  ],
					  [
						"▁Because",
						-3.0
					  ],
					  [
						"▁extension",
						-3.0
					  ],
					  [
						"▁prestations",
						-3.0
					  ],
					  [
						"▁Representative",
						-3.0
					  ],
					  [
						"▁invite",
						-3.0
					  ],
					  [
						".8",
						-3.0
					  ],
					  [
						"▁figurant",
						-3.0
					  ],
					  [
						"▁fair",
						-3.0
					  ],
					  [
						"▁Ministre",
						-3.0
					  ],
					  [
						"▁industries",
						-3.0
					  ],
					  [
						"▁écoles",
						-3.0
					  ],
					  [
						"▁useful",
						-3.0
					  ],
					  [
						"▁Also",
						-3.0
					  ],
					  [
						"▁race",
						-3.0
					  ],
					  [
						"our",
						-3.0
					  ],
					  [
						"▁panier",
						-3.0
					  ],
					  [
						"▁usage",
						-3.0
					  ],
					  [
						"▁raised",
						-3.0
					  ],
					  [
						"Ontario",
						-3.0
					  ],
					  [
						"▁rue",
						-3.0
					  ],
					  [
						"▁religious",
						-3.0
					  ],
					  [
						"▁conclu",
						-3.0
					  ],
					  [
						"53",
						-3.0
					  ],
					  [
						"▁Each",
						-3.0
					  ],
					  [
						"▁enjoy",
						-3.0
					  ],
					  [
						"▁soir",
						-3.0
					  ],
					  [
						"▁reviews",
						-3.0
					  ],
					  [
						"▁tool",
						-3.0
					  ],
					  [
						"▁leaders",
						-3.0
					  ],
					  [
						"61",
						-3.0
					  ],
					  [
						"▁agricole",
						-3.0
					  ],
					  [
						"▁fire",
						-3.0
					  ],
					  [
						"▁mechanism",
						-3.0
					  ],
					  [
						"▁capable",
						-3.0
					  ],
					  [
						"▁perte",
						-3.0
					  ],
					  [
						"▁urban",
						-3.0
					  ],
					  [
						"pos",
						-3.0
					  ],
					  [
						"▁1991",
						-3.0
					  ],
					  [
						"▁canadiennes",
						-3.0
					  ],
					  [
						"▁Members",
						-3.0
					  ],
					  [
						"ten",
						-3.0
					  ],
					  [
						"▁territoires",
						-3.0
					  ],
					  [
						"▁fabrication",
						-3.0
					  ],
					  [
						"▁totale",
						-3.0
					  ],
					  [
						"▁Genève",
						-3.0
					  ],
					  [
						"▁seems",
						-3.0
					  ],
					  [
						"▁officers",
						-3.0
					  ],
					  [
						"▁importe",
						-3.0
					  ],
					  [
						"▁lieux",
						-3.0
					  ],
					  [
						"▁seven",
						-3.0
					  ],
					  [
						"▁lost",
						-3.0
					  ],
					  [
						"onformément",
						-3.0
					  ],
					  [
						"intention",
						-3.0
					  ],
					  [
						"▁ongoing",
						-3.0
					  ],
					  [
						"UR",
						-3.0
					  ],
					  [
						"▁administratives",
						-3.0
					  ],
					  [
						"IM",
						-3.0
					  ],
					  [
						"governmental",
						-3.0
					  ],
					  [
						"▁Official",
						-3.0
					  ],
					  [
						"▁signature",
						-3.0
					  ],
					  [
						"mon",
						-3.0
					  ],
					  [
						"▁stations",
						-3.0
					  ],
					  [
						"▁consumption",
						-3.0
					  ],
					  [
						"▁atteint",
						-3.0
					  ],
					  [
						"▁siège",
						-3.0
					  ],
					  [
						"▁Cuba",
						-3.0
					  ],
					  [
						"▁quite",
						-3.0
					  ],
					  [
						"▁Geneva",
						-3.0
					  ],
					  [
						"▁Bon",
						-3.0
					  ],
					  [
						"▁offrir",
						-3.0
					  ],
					  [
						"▁visits",
						-3.0
					  ],
					  [
						"▁legislative",
						-3.0
					  ],
					  [
						"ST",
						-3.0
					  ],
					  [
						"▁garde",
						-3.0
					  ],
					  [
						"▁target",
						-3.0
					  ],
					  [
						"▁64",
						-3.0
					  ],
					  [
						"ari",
						-3.0
					  ],
					  [
						"▁conformité",
						-3.0
					  ],
					  [
						"▁obtain",
						-3.0
					  ],
					  [
						"▁52",
						-3.0
					  ],
					  [
						"CI",
						-3.0
					  ],
					  [
						"▁aircraft",
						-3.0
					  ],
					  [
						"auteur",
						-3.0
					  ],
					  [
						"CH",
						-3.0
					  ],
					  [
						"▁rester",
						-3.0
					  ],
					  [
						"▁400",
						-3.0
					  ],
					  [
						"évolution",
						-3.0
					  ],
					  [
						"▁1998,",
						-3.0
					  ],
					  [
						"▁bi",
						-3.0
					  ],
					  [
						"ani",
						-3.0
					  ],
					  [
						"▁files",
						-3.0
					  ],
					  [
						"▁élément",
						-3.0
					  ],
					  [
						"▁actuel",
						-3.0
					  ],
					  [
						"▁effectively",
						-3.0
					  ],
					  [
						"▁floor",
						-3.0
					  ],
					  [
						"▁adopt",
						-3.0
					  ],
					  [
						"▁taxes",
						-3.0
					  ],
					  [
						"1,",
						-3.0
					  ],
					  [
						"▁http",
						-3.0
					  ],
					  [
						"▁animal",
						-3.0
					  ],
					  [
						"▁contenant",
						-3.0
					  ],
					  [
						"▁sign",
						-3.0
					  ],
					  [
						"▁sciences",
						-3.0
					  ],
					  [
						"▁worked",
						-3.0
					  ],
					  [
						"▁laid",
						-3.0
					  ],
					  [
						"améliorer",
						-3.0
					  ],
					  [
						"▁developments",
						-3.0
					  ],
					  [
						"▁51",
						-3.0
					  ],
					  [
						"▁recommendation",
						-3.0
					  ],
					  [
						"▁tri",
						-3.0
					  ],
					  [
						"▁conduite",
						-3.0
					  ],
					  [
						"▁détention",
						-3.0
					  ],
					  [
						"▁enforcement",
						-3.0
					  ],
					  [
						"▁fichiers",
						-3.0
					  ],
					  [
						"▁gratuit",
						-3.0
					  ],
					  [
						"▁processing",
						-3.0
					  ],
					  [
						"▁examine",
						-3.0
					  ],
					  [
						"▁accept",
						-3.0
					  ],
					  [
						"▁emergency",
						-3.0
					  ],
					  [
						"▁correct",
						-3.0
					  ],
					  [
						"▁prochaine",
						-3.0
					  ],
					  [
						"euse",
						-3.0
					  ],
					  [
						"▁messages",
						-3.0
					  ],
					  [
						"▁supporting",
						-3.0
					  ],
					  [
						"▁emissions",
						-3.0
					  ],
					  [
						"ach",
						-3.0
					  ],
					  [
						"▁growing",
						-3.0
					  ],
					  [
						"▁particuliers",
						-3.0
					  ],
					  [
						"▁map",
						-3.0
					  ],
					  [
						"▁Allemagne",
						-3.0
					  ],
					  [
						"▁stand",
						-3.0
					  ],
					  [
						"▁présentés",
						-3.0
					  ],
					  [
						"▁visiteurs",
						-3.0
					  ],
					  [
						"-10",
						-3.0
					  ],
					  [
						"▁highly",
						-3.0
					  ],
					  [
						"▁fédérale",
						-3.0
					  ],
					  [
						"▁debt",
						-3.0
					  ],
					  [
						"▁nor",
						-3.0
					  ],
					  [
						"▁behind",
						-3.0
					  ],
					  [
						"▁laisser",
						-3.0
					  ],
					  [
						"▁cart",
						-3.0
					  ],
					  [
						"▁adoptée",
						-3.0
					  ],
					  [
						"▁54",
						-3.0
					  ],
					  [
						"▁Avis",
						-3.0
					  ],
					  [
						"06",
						-3.0
					  ],
					  [
						"▁amis",
						-3.0
					  ],
					  [
						"▁globale",
						-3.0
					  ],
					  [
						"▁règle",
						-3.0
					  ],
					  [
						"▁steel",
						-3.0
					  ],
					  [
						"▁produce",
						-3.0
					  ],
					  [
						"▁machines",
						-3.0
					  ],
					  [
						"▁concluded",
						-3.0
					  ],
					  [
						"▁possibility",
						-3.0
					  ],
					  [
						"▁pouvait",
						-3.0
					  ],
					  [
						"▁utilisant",
						-3.0
					  ],
					  [
						"▁circonstances",
						-3.0
					  ],
					  [
						"CP",
						-3.0
					  ],
					  [
						"tri",
						-3.0
					  ],
					  [
						"▁prévenir",
						-3.0
					  ],
					  [
						"▁accepted",
						-3.0
					  ],
					  [
						"▁champ",
						-3.0
					  ],
					  [
						"▁super",
						-3.0
					  ],
					  [
						"▁Sch",
						-3.0
					  ],
					  [
						"sion",
						-3.0
					  ],
					  [
						"▁commitments",
						-3.0
					  ],
					  [
						"▁Italie",
						-3.0
					  ],
					  [
						"▁premières",
						-3.0
					  ],
					  [
						"so",
						-3.0
					  ],
					  [
						"▁appeal",
						-3.0
					  ],
					  [
						"appel",
						-3.0
					  ],
					  [
						"▁supplémentaire",
						-3.0
					  ],
					  [
						"▁vont",
						-3.0
					  ],
					  [
						"▁challenge",
						-3.0
					  ],
					  [
						"▁employee",
						-3.0
					  ],
					  [
						"▁efficient",
						-3.0
					  ],
					  [
						"▁entier",
						-3.0
					  ],
					  [
						"▁agree",
						-3.0
					  ],
					  [
						"▁reconnaissance",
						-3.0
					  ],
					  [
						"▁définir",
						-3.0
					  ],
					  [
						"▁diversité",
						-3.0
					  ],
					  [
						"▁choisir",
						-3.0
					  ],
					  [
						"▁Chairman",
						-3.0
					  ],
					  [
						"uk",
						-3.0
					  ],
					  [
						"▁Resources",
						-3.0
					  ],
					  [
						"▁partner",
						-3.0
					  ],
					  [
						"q",
						-3.0
					  ],
					  [
						"▁educational",
						-3.0
					  ],
					  [
						"▁thème",
						-3.0
					  ],
					  [
						"▁gamme",
						-3.0
					  ],
					  [
						"échelle",
						-3.0
					  ],
					  [
						"▁morning",
						-3.0
					  ],
					  [
						"▁01",
						-3.0
					  ],
					  [
						"▁expenditure",
						-3.0
					  ],
					  [
						"▁auto",
						-3.0
					  ],
					  [
						"▁discussed",
						-3.0
					  ],
					  [
						"▁tonnes",
						-3.0
					  ],
					  [
						"avez",
						-3.0
					  ],
					  [
						"▁Voici",
						-3.0
					  ],
					  [
						"▁departments",
						-3.0
					  ],
					  [
						"▁56",
						-3.0
					  ],
					  [
						"▁chemin",
						-3.0
					  ],
					  [
						"▁défis",
						-3.0
					  ],
					  [
						"TA",
						-3.0
					  ],
					  [
						"▁Forces",
						-3.0
					  ],
					  [
						"▁user",
						-3.0
					  ],
					  [
						"▁stabilité",
						-3.0
					  ],
					  [
						"▁Work",
						-3.0
					  ],
					  [
						"▁Water",
						-3.0
					  ],
					  [
						"▁Hey",
						-3.0
					  ],
					  [
						"▁2003.",
						-3.0
					  ],
					  [
						"▁author",
						-3.0
					  ],
					  [
						"▁nucléaire",
						-3.0
					  ],
					  [
						"▁fondée",
						-3.0
					  ],
					  [
						"87",
						-3.0
					  ],
					  [
						"▁wrong",
						-3.0
					  ],
					  [
						"ette",
						-3.0
					  ],
					  [
						"▁donnée",
						-3.0
					  ],
					  [
						"94",
						-3.0
					  ],
					  [
						"▁Même",
						-3.0
					  ],
					  [
						"▁Federation",
						-3.0
					  ],
					  [
						"▁approuvé",
						-3.0
					  ],
					  [
						"▁continues",
						-3.0
					  ],
					  [
						"▁communiquer",
						-3.0
					  ],
					  [
						"▁participé",
						-3.0
					  ],
					  [
						"▁jeune",
						-3.0
					  ],
					  [
						"▁prêts",
						-3.0
					  ],
					  [
						"▁marketing",
						-3.0
					  ],
					  [
						"iens",
						-3.0
					  ],
					  [
						"▁vivre",
						-3.0
					  ],
					  [
						"▁permettra",
						-3.0
					  ],
					  [
						"▁Certains",
						-3.0
					  ],
					  [
						"▁Joint",
						-3.0
					  ],
					  [
						"▁recommande",
						-3.0
					  ],
					  [
						"▁connu",
						-3.0
					  ],
					  [
						"▁organisé",
						-3.0
					  ],
					  [
						"▁officielles",
						-3.0
					  ],
					  [
						"▁Furthermore",
						-3.0
					  ],
					  [
						"▁ministères",
						-3.0
					  ],
					  [
						"ven",
						-3.0
					  ],
					  [
						"▁indicators",
						-3.0
					  ],
					  [
						"▁bed",
						-3.0
					  ],
					  [
						"vin",
						-3.0
					  ],
					  [
						"▁chefs",
						-3.0
					  ],
					  [
						"▁Charte",
						-3.0
					  ],
					  [
						"▁destinés",
						-3.0
					  ],
					  [
						"enfant",
						-3.0
					  ],
					  [
						"▁pertinentes",
						-3.0
					  ],
					  [
						"▁courts",
						-3.0
					  ],
					  [
						"▁spéciales",
						-3.0
					  ],
					  [
						"▁$1",
						-3.0
					  ],
					  [
						"73",
						-3.0
					  ],
					  [
						"▁institutional",
						-3.0
					  ],
					  [
						"▁fourni",
						-3.0
					  ],
					  [
						"▁sang",
						-3.0
					  ],
					  [
						"▁trying",
						-3.0
					  ],
					  [
						"vent",
						-3.0
					  ],
					  [
						"ud",
						-3.0
					  ],
					  [
						"▁introduction",
						-3.0
					  ],
					  [
						"▁meilleurs",
						-3.0
					  ],
					  [
						"▁95",
						-3.0
					  ],
					  [
						"▁ministres",
						-3.0
					  ],
					  [
						"▁Most",
						-3.0
					  ],
					  [
						"▁tient",
						-3.0
					  ],
					  [
						"▁gives",
						-3.0
					  ],
					  [
						"dll",
						-3.0
					  ],
					  [
						"▁moteur",
						-3.0
					  ],
					  [
						"▁échanges",
						-3.0
					  ],
					  [
						"▁Safety",
						-3.0
					  ],
					  [
						"▁guarantee",
						-3.0
					  ],
					  [
						"▁Second",
						-3.0
					  ],
					  [
						"▁Sea",
						-3.0
					  ],
					  [
						"▁Ireland",
						-3.0
					  ],
					  [
						"AD",
						-3.0
					  ],
					  [
						"▁collectivités",
						-3.0
					  ],
					  [
						"▁Many",
						-3.0
					  ],
					  [
						"tor",
						-3.0
					  ],
					  [
						"▁inform",
						-3.0
					  ],
					  [
						"Km",
						-3.0
					  ],
					  [
						"▁Tri",
						-3.0
					  ],
					  [
						"▁Type",
						-3.0
					  ],
					  [
						"▁Nouvelle",
						-3.0
					  ],
					  [
						"▁gr",
						-3.0
					  ],
					  [
						"ano",
						-3.0
					  ],
					  [
						"▁began",
						-3.0
					  ],
					  [
						"▁sales",
						-3.0
					  ],
					  [
						"▁links",
						-3.0
					  ],
					  [
						"▁vacances",
						-3.0
					  ],
					  [
						"making",
						-3.0
					  ],
					  [
						"▁Twitter",
						-3.0
					  ],
					  [
						"▁Get",
						-3.0
					  ],
					  [
						"PC",
						-3.0
					  ],
					  [
						"▁Two",
						-3.0
					  ],
					  [
						"▁(2",
						-3.0
					  ],
					  [
						"▁recommandé",
						-3.0
					  ],
					  [
						"▁Réunion",
						-3.0
					  ],
					  [
						"▁requirement",
						-3.0
					  ],
					  [
						"▁pourcentage",
						-3.0
					  ],
					  [
						"▁adopter",
						-3.0
					  ],
					  [
						"▁numbers",
						-3.0
					  ],
					  [
						"▁link",
						-3.0
					  ],
					  [
						"▁effectiveness",
						-3.0
					  ],
					  [
						"▁réalité",
						-3.0
					  ],
					  [
						"innovation",
						-3.0
					  ],
					  [
						"▁généraux",
						-3.0
					  ],
					  [
						"▁certification",
						-3.0
					  ],
					  [
						"▁yeux",
						-3.0
					  ],
					  [
						"▁courses",
						-3.0
					  ],
					  [
						"▁bank",
						-3.0
					  ],
					  [
						"▁aware",
						-3.0
					  ],
					  [
						"▁guidance",
						-3.0
					  ],
					  [
						"▁Main",
						-3.0
					  ],
					  [
						"▁Pacte",
						-3.0
					  ],
					  [
						"▁welcome",
						-3.0
					  ],
					  [
						"▁garantie",
						-3.0
					  ],
					  [
						"▁Po",
						-3.0
					  ],
					  [
						"▁River",
						-3.0
					  ],
					  [
						"▁Afin",
						-3.0
					  ],
					  [
						"▁task",
						-3.0
					  ],
					  [
						"lon",
						-3.0
					  ],
					  [
						"èrent",
						-3.0
					  ],
					  [
						"▁mener",
						-3.0
					  ],
					  [
						"▁mouvement",
						-3.0
					  ],
					  [
						"▁aliments",
						-3.0
					  ],
					  [
						"▁installation",
						-3.0
					  ],
					  [
						"100",
						-3.0
					  ],
					  [
						"▁giving",
						-3.0
[...]
